#version: 0.2
o u
e n
a i
a n
t h
o n
e r
e s
i n
e .</w>
a r
q u
e s</w>
i s</w>
r e</w>
d e</w>
l e</w>
a s</w>
e r</w>
t o</w>
t i
o r
r e
o m
a v
n e</w>
ou s</w>
th e</w>
c h
a l
i s
o u</w>
e l
i t
e u
t r
o n</w>
J e</w>
es t</w>
s .</w>
qu e</w>
e n</w>
a t
p r
e d</w>
o m</w>
m e</w>
p as</w>
y ou</w>
en t</w>
e m
a t</w>
t .</w>
in g</w>
a s
a u
i l
T om</w>
s u
l i
l a</w>
T h
n o
d i
r i
n '
c e</w>
p l
o i
ai s</w>
ou r</w>
t e</w>
ai t</w>
u n</w>
s e</w>
l e
v ous</w>
o f</w>
l '
i n</w>
er .</w>
a m
u s
I l</w>
e t</w>
ou r
a g
a p
a i</w>
s t
y .</w>
a c
é t
a n</w>
e v
o o
l es</w>
p ar
c om
es .</w>
' t</w>
' s</w>
e t
d .</w>
c on
d '
o l
i l</w>
u ne</w>
av e</w>
a b
h e</w>
t re</w>
I '
w h
an t</w>
J '
s e
f o
t u</w>
in g
b e
i c
m o
v e</w>
an d</w>
en t
en d
ou t</w>
p o
r o
r e.</w>
d é
ou l
W h
er e</w>
w as</w>
on s</w>
i t</w>
d o
j e</w>
h ave</w>
p e
s i
l o
k e</w>
d on
H e</w>
v er
Th e</w>
al l
a ti
g h
qu '
an s</w>
eu x</w>
u n
an g
fo r</w>
f ai
n e
v i
i m
th at</w>
' est</w>
ai n
y ou
s on
no t</w>
a y
e z</w>
t o
ar e</w>
pr o
u s</w>
p our</w>
E l
f r
c i
d es</w>
a u</w>
an t
su is</w>
a d
u r
b e</w>
y our</w>
ou v
I' m</w>
p en
m y</w>
Y ou</w>
on .</w>
é .</w>
e x
n' t</w>
i r
v o
z -
El le</w>
s h
d ans</w>
d o</w>
a r</w>
d e
ai s
k no
f f
a y</w>
ing .</w>
g o
es t
oul d</w>
d u</w>
S he</w>
N ous</w>
J' ai</w>
b u
a d</w>
m ent</w>
- tu</w>
m e.</w>
Q u
t es</w>
r é
it h</w>
es s
th is</w>
don 't</w>
av e
c ou
al l</w>
l e.</w>
en t.</w>
w ith</w>
el le</w>
b i
m e
' re</w>
p or
s om
p er
c o
M ar
t em
f or
l u
w ant</w>
t er
T u</w>
n ous</w>
z- vous</w>
li ke</w>
e y</w>
l l</w>
w or
pl us</w>
C 'est</w>
t er</w>
t e
V ous</w>
n i
oi r</w>
h is</w>
c u
o w</w>
W e</w>
qu i</w>
m es</w>
ét ait</w>
p u
t ou
m on
on e</w>
kno w</w>
m '
it .</w>
h i
an d
a l</w>
eu r
è s</w>
t en
d ev
a .</w>
è re</w>
k .</w>
ave c</w>
L e</w>
l y</w>
s i</w>
h e
gh t</w>
as s
m i
L a</w>
j our
f u
em ent</w>
o p
th in
b o
s on</w>
r en
b l
ê tre</w>
us t</w>
d is
c an
qu' il</w>
ar ri
fai re</w>
ai n</w>
you .</w>
e ,</w>
c h</w>
g r
tem p
f ait</w>
m an
il l
h as</w>
a k
ap p
o i</w>
son t</w>
s er
é e</w>
w e
t el
L es</w>
wh at</w>
p i
il l</w>
d n't</w>
ch o
c e.</w>
on t</w>
g u
c r
th er</w>
ver y</w>
a ch
é r
m in
pr é
i .</w>
e d.</w>
t u
su r</w>
a ke</w>
s '
qu oi</w>
l .</w>
eu r</w>
d er
Y ou
f i
h er</w>
on 't</w>
D o</w>
th ing</w>
t -
I t
v r
thin k</w>
et te</w>
e l</w>
Th is</w>
n' est</w>
e ?</w>
g ar
T om
m ar
is .</w>
th at
qu el
p h
h om
a y.</w>
j '
Wh at</w>
h ad</w>
c an</w>
C om
tr ès</w>
s ,</w>
g et</w>
I t</w>
t out</w>
f in
t e.</w>
s o
w ill</w>
tr av
eu x
an t.</w>
- ce</w>
m on</w>
ev er</w>
d r
f e
d u
po s
C e</w>
it u
It 's</w>
g o</w>
w ere</w>
v en
em b
can 't</w>
ti on</w>
tr o
oi .</w>
di d</w>
Th ey</w>
mo i</w>
e z-vous</w>
v eux</w>
oo k</w>
l is
l s</w>
d em
c ar
ab out</w>
fr om</w>
ag e</w>
ét é</w>
n u
c ol
ati on</w>
Mar y</w>
s ais</w>
i r</w>
s e.</w>
oo d</w>
bu t</w>
s or
g i
w e</w>
w .</w>
s t</w>
j am
hi m</w>
c l
vo tre</w>
s es</w>
H ow</w>
all y</w>
s a</w>
m or
be au
p ar</w>
ou n
di dn't</w>
is t
en .</w>
bi en</w>
e c
pr end
D on't</w>
trav ai
p re
an y
s o</w>
s el
m u
a f
r .</w>
oo k
h u
h er
m ais</w>
it e</w>
You 're</w>
oi t</w>
n o</w>
ain .</w>
our quoi</w>
h el
ev er
at 's</w>
p .</w>
li v
en s</w>
di t</w>
c ette</w>
N e</w>
r es
b y</w>
temp s</w>
en ti
d er</w>
c or
b r
M y</w>
m a</w>
l on
j ust</w>
eu t</w>
é e.</w>
ç a</w>
vr ai
c el
t ed</w>
s pe
ol d</w>
ar g
t al
s eu
i e</w>
a m</w>
su r
s av
i g
e ar
di ff
at e</w>
L '
v ou
par l
m er
go ing</w>
I ls</w>
n' ai</w>
h im
th er
ne ed</w>
d e.</w>
Tom .</w>
t '
lu i</w>
e as
as t</w>
tr u
st u
som e
pen se</w>
oi n</w>
jam ais</w>
ar d</w>
a me</w>
s ou
e 's</w>
por t
m é
è re.</w>
v is
on n
k ed</w>
ent s</w>
d ay.</w>
o b
in .</w>
com m
be en</w>
t é
s ol
p ass
f ri
c our
th e
se e</w>
g ood</w>
w ould</w>
n ever</w>
mo re</w>
c e
au s
w i
cou p</w>
av ons</w>
am i</w>
I' ll</w>
t on</w>
s ai
re ad
A re</w>
p eux</w>
f il
ê tes</w>
that .</w>
th an</w>
Wh y</w>
P ourquoi</w>
ti me</w>
t om
e u</w>
au x</w>
e d
arri v
a î
Th ere</w>
I' ve</w>
tel l</w>
t s</w>
sh ould</w>
p ouv
in e</w>
W e
tr i
qu es
o c
b es
par ti
p a
h eu
com me</w>
u p</w>
re u
an c
to o</w>
s ti
ay s</w>
av ait</w>
an y</w>
vrai ment</w>
com e</w>
ag e.</w>
a w
re m
i f</w>
ab le</w>
wh o</w>
s p
o r</w>
it t
v oul
t ous</w>
re ally</w>
pe ti
on ly</w>
k e
es ,</w>
an ce</w>
ai me</w>
Ç a</w>
m ê
av oir</w>
y ,</w>
quel que</w>
l' é
ant s</w>
an ce.</w>
al .</w>
re t
est -ce</w>
c 'est</w>
N o
tro p</w>
f .</w>
con n
beau coup</w>
Com ment</w>
- je</w>
t ,</w>
pr es
l l
h ow</w>
gh t.</w>
en f
S ami</w>
- t-
ou ght</w>
m a
f a
es -
dé j
c ri
au r
wh en</w>
t er.</w>
on e.</w>
m oi.</w>
le t
j ou
go t</w>
f au
cho se</w>
E st
ne w</w>
n ouv
mu ch</w>
f er
d y</w>
w r
th ere</w>
m at
k ing</w>
is e</w>
en d</w>
con tr
com p
ch e</w>
b el
ç a.</w>
o f
m' a</w>
l é
j us
ever y
eux .</w>
as e</w>
an .</w>
th ey</w>
t ing</w>
t ?</w>
re e</w>
o ù</w>
il s</w>
en c
ci d
ang u
p on
es -tu</w>
di re</w>
w at
th ing.</w>
our r
en ce</w>
e au</w>
ar r
tr ouv
ti me.</w>
som mes</w>
n g
l' ai
l ook
c au
b li
I s</w>
D i
v oir</w>
tr ain</w>
s he</w>
s 'est</w>
prend re</w>
jour s</w>
f am
a k</w>
v a</w>
t a</w>
p eut</w>
ou g
m ang
m ain
co re</w>
ch ang
bes oin</w>
ati on.</w>
ai s.</w>
O n</w>
w n</w>
v it
n e.</w>
l angu
f ac
es s</w>
er s</w>
don n
d eux</w>
at t
ét ais</w>
u s.</w>
pro bl
oun d</w>
j' ai</w>
him .</w>
en core</w>
d s</w>
Est -ce</w>
ti on.</w>
son ne</w>
re c
r est
as se
ai ent</w>
wh ere</w>
t w
si b
her e.</w>
e p</w>
c ould</w>
x .</w>
t é</w>
su p
pr i
m ust</w>
m an</w>
in ter
h ab
c er
al i
M on</w>
é s</w>
v er</w>
v ais</w>
s ch
s -tu</w>
s -
qu e.</w>
on s.</w>
mon de</w>
l ast</w>
eur .</w>
Th at's</w>
I f</w>
C h
th .</w>
t ur
t ake</w>
som e</w>
r y</w>
n' a</w>
hom me</w>
e y
ch i
c ro
b ac
an s
pe u</w>
l ement</w>
il le</w>
ic i
g l
es n't</w>
ch ez</w>
Th at</w>
I' d</w>
' ll</w>
é ri
u l
tou jours</w>
qu es</w>
hel p</w>
fai re.</w>
all er</w>
ais s
you ?</w>
vi e</w>
pr is</w>
it é</w>
h app
do esn't</w>
bel i
b re
at .</w>
-t- il</w>
w el
vo itu
tr ou
t h</w>
ri en</w>
pa s.</w>
j o
av ais</w>
au t
v e.</w>
t en</w>
re d</w>
por te</w>
oi r.</w>
m ake</w>
es- vous</w>
d ay
av ez</w>
aus si</w>
ab le.</w>
th ing
o ff
m us
le z</w>
k s</w>
ic i.</w>
do is</w>
ch .</w>
P le
C an</w>
m is
es e</w>
dev r
w ent</w>
vo y
v ol
t old</w>
mê me</w>
in s</w>
h o
d' hu
d ay</w>
ch il
bo dy</w>
beli ev
b et
J ap
A v
temp s.</w>
t es-vous</w>
son .</w>
s' il</w>
s em
re gar
r end
po in
parl er</w>
ou s
o ther</w>
le ar
l y.</w>
l itt
g re
eur s</w>
ach et
Ple ase</w>
y ?</w>
sti ll</w>
st ar
sch oo
s le
s emb
r u
pr ès</w>
pen s
no w.</w>
l at
h ap
dem and
c ti
b or
S i</w>
you 're</w>
we e
tr e.</w>
spe ak</w>
read y</w>
n' y</w>
he 's</w>
h eur
es p
en 't</w>
We 're</w>
y ear
v u</w>
th er.</w>
s ent
ri ght</w>
pr om
lo ve</w>
is -je</w>
g .</w>
com pl
cau se</w>
c lo
b on
au .</w>
ar d.</w>
ai re</w>
El les</w>
' ve</w>
un i
re ,</w>
qu' un</w>
op le</w>
oc cu
jour d'hu
h ou
f ir
s a
p end
p e</w>
or .</w>
litt le</w>
g ir
fin d</w>
fau t</w>
déj à</w>
d ét
b us
b ro
app el
Qu e</w>
O ù</w>
ét u
w ant
vi v
un der
s ?</w>
pos sib
pl u
pl eas
o .</w>
ic i</w>
c us
c re
b on</w>
an ç
al w
ais on</w>
ai mer
Wh o</w>
B o
to i</w>
t y</w>
s m
s ans</w>
pl aî
oi re</w>
n er</w>
m al
lo t</w>
l ook</w>
in e.</w>
hap pen
d or
c es</w>
arri ve</w>
alw ays</w>
a z
Wh ere</w>
Mar ie</w>
t oi.</w>
qu and</w>
p ay
oug h</w>
main ten
lo w
it s</w>
in d
ic h</w>
h or
ent s.</w>
d es
c k
Qu '
E ng
è r
w as
su re</w>
s oit</w>
p as
fo is</w>
f em
ent end
der ni
au tre</w>
T out</w>
F r
Di d</w>
wor k</w>
pe ople</w>
oul dn't</w>
no tre</w>
n ed</w>
ma de</w>
li g
ir .</w>
h av
et s</w>
en tr
cel a</w>
ar d
P er
F ren
v é
under st
th is.</w>
tal k</w>
sai d</w>
man y</w>
f l
e t.</w>
diff ic
c ar</w>
believ e</w>
ai l
H e's</w>
w ay</w>
tw o</w>
th ought</w>
lon g</w>
in to</w>
in t
eux -tu</w>
au jourd'hu
as -tu</w>
ang l
ai r
étu di
u e</w>
si m
sh o
r a
probl è
po li
pe c
ou t
in d</w>
i on</w>
gi ve</w>
g e</w>
fam il
cou n
b re</w>
av ant</w>
P ar
ren contr
ques ti
ph o
or s
occu p
n om
is n't</w>
is h</w>
is h
h ere</w>
g en
fr anç
fe el</w>
er ,</w>
con t
c ame</w>
arr ê
Wh en</w>
Qu i</w>
wi th
want ed</w>
vou s.</w>
t ô
t s.</w>
t ook</w>
sel f.</w>
s tr
s en
s ay</w>
qu' elle</w>
par t</w>
n .</w>
l à
it 's</w>
i de
ess ay
ave z-vous</w>
aimer ais</w>
Eng lis
E n</w>
y ing</w>
w on't</w>
us ed</w>
tou te</w>
te ach
s û
s é
pre mi
pr ê
or ro
m ag
m .</w>
le ave</w>
it é.</w>
ing ?</w>
i e.</w>
g e
e ff
at ten
a -t-il</w>
U n</w>
I n</w>
Av ez-vous</w>
su c
some thing</w>
ro om
re ad</w>
pro f
pro b
p ourr
li k
li f
h er.</w>
g ro
en n
d' un</w>
c ap
att end
an de</w>
J' aimerais</w>
H ave</w>
' était</w>
é es</w>
u ti
tr y</w>
qu i
me ?</w>
m ai
lu i.</w>
lon g
im port
ig n
bu y</w>
ac cid
- moi</w>
w s</w>
v es</w>
v e
ti c
the ir</w>
that ?</w>
s al
i dé
h ur
fu t</w>
el y</w>
e at</w>
d ,</w>
bon ne</w>
ati on
all .</w>
Wh at's</w>
Per sonne</w>
N o</w>
I n
y our
u r</w>
té lé
tom orro
tem ent</w>
stu d
s ait</w>
pu is</w>
pr is
ou s.</w>
le f
jus te</w>
it y</w>
gr and
fu l</w>
es s.</w>
el les</w>
d in
ch er</w>
ch er
c at
an n
ai re.</w>
Qu el</w>
P u
' d</w>
é s.</w>
é n
ver y
th ree</w>
s ouv
s ci
mo st</w>
m om
m il
m ak
m aison</w>
j u
i v
i on.</w>
heu reu
h ist
do es</w>
d' être</w>
d û</w>
be cause</w>
au c
asse z</w>
ai t.</w>
a d.</w>
E very
C el
z e</w>
u p
tro is</w>
t re
t es.</w>
qu elle</w>
p t</w>
p eu
on g</w>
of f</w>
ni ght.</w>
m oi
m et
m er</w>
l'ai r</w>
it e.</w>
fo re</w>
em ent.</w>
em .</w>
e p
ch am
ai d</w>
A n
A l
é cri
é ,</w>
with out</w>
ven ir</w>
travai ll
tou tes</w>
pu l
par le</w>
p ère</w>
o se</w>
mon e
min u
me ,</w>
l' in
j eu
int ér
er e's</w>
dr in
d' une</w>
d ri
d ou
c t
c ess
bac k</w>
as ked</w>
arg ent.</w>
an d.</w>
L et
Bo st
z .</w>
sim pl
pré f
o y
no thing</w>
l a
i d
ex ac
en d.</w>
el l</w>
d ang
chil d
ch e.</w>
be fore</w>
an te</w>
ais se
ac e.</w>
N '
Let 's</w>
Com bien</w>
ç on</w>
w in
w al
voitu re</w>
u p.</w>
tr es</w>
pu t</w>
pré ci
p ati
ou t.</w>
n er.</w>
mone y.</w>
mar i
m es.</w>
li ve</w>
l eur</w>
ic k
ic e.</w>
i le</w>
g g
fir st</w>
f oo
f as
en ce.</w>
e au.</w>
d ro
ch em
ai ne</w>
S he's</w>
J' aime</w>
é es.</w>
qu' ils</w>
ou bli
m y
l aiss
jour n
ing ,</w>
g n
g ens</w>
for m
e b
diffic ul
c i</w>
at e.</w>
ais -tu</w>
C ette</w>
A s-tu</w>
v ér
tu re</w>
t ak
sor ti
semb le</w>
sel f</w>
sa w</w>
qu' à</w>
pro du
par t
oo r</w>
mo ins</w>
m is</w>
l' ai</w>
j ec
it ?</w>
h and
go .</w>
fri end
ent ,</w>
end r
d er.</w>
cou p
c k</w>
au gh
ant s.</w>
an s.</w>
af ter</w>
ac h</w>
U ne</w>
Qu and</w>
Mar y.</w>
- il</w>
ê te</w>
Ê tes-vous</w>
voul ais</w>
ur .</w>
u .</w>
st or
simpl ement</w>
quel ques</w>
pu is
per son
pass é</w>
par ents</w>
m al</w>
l ors
hom e.</w>
h .</w>
f on
est er
er s.</w>
en tre</w>
el .</w>
e at
dé sol
do .</w>
d oit</w>
cer t
c is
c in
c et</w>
bet ter</w>
b ook
aur ais</w>
au v
any thing</w>
a fr
M a</w>
H is</w>
é g
z- moi</w>
wor l
wor k.</w>
v eut</w>
to .</w>
pl ay</w>
pl ay
peti t</w>
on ,</w>
of ten</w>
o ver</w>
ne x
mi eux</w>
look ing</w>
li c
le z-vous</w>
le ,</w>
l un
in ce</w>
i ons</w>
g ag
ex p
demand é</w>
con du
com ment</w>
chi en</w>
b le</w>
al ready</w>
al one.</w>
D o
é ti
wh ich</w>
vi e
travai l</w>
s k
qu el</w>
m et</w>
m b
liv re</w>
le t</w>
l' a</w>
l le</w>
l ar
j ob
i re</w>
hab itu
gre at</w>
ever y</w>
em pl
de puis</w>
ch é</w>
c ur
be ing</w>
ant e.</w>
al is
ai m
w ants</w>
vo s</w>
vi ens</w>
v ent</w>
si on</w>
se en</w>
s ent</w>
room .</w>
rem emb
r y.</w>
pro ch
pi è
pend ant</w>
pen sais</w>
n' est-ce</w>
n' arrive</w>
n ing.</w>
n er
me ill
k new</w>
it y.</w>
il e.</w>
g et
fa ther</w>
el l
e -
con se
bi en.</w>
b ook</w>
at o
arg ent</w>
a près</w>
Y our</w>
Th ere's</w>
S om
Qu elle</w>
w ar
uti lis
travai l.</w>
schoo l.</w>
s oi
res pon
r ou
po se</w>
p ic
or s</w>
nex t</w>
m ay</w>
m arri
l ’
l à</w>
in vit
h op
f ound</w>
do g</w>
cho ses</w>
car .</w>
c am
b ou
b est</w>
all é</w>
ai r</w>
afr aid</w>
achet er</w>
a th
Qu' est-ce</w>
Cel a</w>
wh y</w>
ver s
v eu
trou ve</w>
tou t.</w>
tom b
the m</w>
souv ent</w>
s tru
s t.</w>
s ing
ri ez</w>
plaî t.</w>
p u</w>
p eur</w>
il .</w>
i ,</w>
h our
h ard</w>
fr oi
fem me</w>
ev en</w>
en ough</w>
d d
cu l
cor rec
col e.</w>
c le
at u
as k</w>
ag ain.</w>
T o
C 'était</w>
A p
ét aient</w>
y ester
vi r
v oir.</w>
tr ans
sav ais</w>
s y
ré pon
poin t</w>
po pul
pl an
pl a
per sonne</w>
p ê
p ed</w>
p ap
nu it</w>
nouv eau</w>
li re</w>
lef t</w>
it ,</w>
il le.</w>
hou se</w>
gr and</w>
ex am
enf ants</w>
en se
cho se.</w>
ce p
c al
ap préci
ac cor
a do
D an</w>
A ll</w>
w on
w om
underst and</w>
tr ang
to day.</w>
ti mes</w>
thing s</w>
seu le</w>
s w
r ess
pr ise</w>
pr in
ph one</w>
oo k.</w>
n ag
mor e.</w>
me et</w>
j our</w>
inter est
im ag
idé e</w>
i ve</w>
i gh
heur es</w>
h on
fri end</w>
for t
do wn</w>
do ing</w>
devr ais</w>
dev ons</w>
con si
comm enc
c as
be g
b at
b ar
ato eb
ati ons</w>
an im
ain s</w>
T atoeb
R e
M on
? "</w>
èr ent</w>
year s</w>
ver s</w>
v ed</w>
un .</w>
u se</w>
tô t</w>
trouv é</w>
tomorro w.</w>
th é
t our
t or
sav oir</w>
s itu
re d.</w>
r ap
prob ab
peti te</w>
op in
ol o
o pen
mang er</w>
mainten ant.</w>
m ent.</w>
l'é cole.</w>
kno ws</w>
job .</w>
in form
i c</w>
happ y.</w>
h un
f all
every thing</w>
ent re
don e</w>
dev en
dem ain.</w>
d s.</w>
d re</w>
d ?</w>
cro is</w>
c all</w>
c .</w>
an k</w>
a ff
a ,</w>
U n
J' étais</w>
wee k.</w>
w ai
voitu re.</w>
v ac
trouv er</w>
ther e.</w>
th em.</w>
t y
t at
pi an
p ourquoi</w>
oo d.</w>
no w</w>
n ing</w>
mai son.</w>
m er.</w>
l è
intér ess
ind re</w>
hom e</w>
he ar
gir l
fri end.</w>
franç ais</w>
fe w</w>
fai t.</w>
f us
f ol
f av
es te</w>
em s</w>
el le.</w>
ch oi
c é
c all
aw ay.</w>
aujourd'hu i.</w>
an other</w>
ac k</w>
W ould</w>
Th ey
Pu is-je</w>
L aisse
. "</w>
wel l.</w>
w ?</w>
vi e.</w>
tel lig
t- être</w>
stu pi
st o
s ens</w>
re ment</w>
r is
quel qu'un</w>
qu er</w>
pu bli
pre t
po st
p ay</w>
on ne
o s
n am
mé di
min d</w>
man .</w>
m ist
m en
li vr
is ,</w>
ide a</w>
i -
he ar</w>
hav ing</w>
h ô
fo is.</w>
fil le</w>
ex pl
en s
déj eu
d re
cu is
ci .</w>
ch au
ch arg
cel a.</w>
c af
bu t
at ed</w>
ar en't</w>
a que</w>
L et</w>
G et</w>
Do es</w>
ê te.</w>
y c
wel l</w>
w n.</w>
ven u</w>
us tr
th ese</w>
t on
si g
seu l</w>
ser v
schoo l</w>
s mo
s ame</w>
rest aur
rememb er</w>
ques tion</w>
pouv ez</w>
pourr ait</w>
possib le</w>
pl an</w>
p ous
p ou
p ain
ou ver
n' en</w>
n om</w>
man i
mainten ant</w>
m ère</w>
le v
le av
ke ep</w>
k ind</w>
jour s.</w>
in tellig
hel p.</w>
g ave</w>
fe el
f en
es t.</w>
er a</w>
ec i</w>
dor m
don t</w>
di rec
de c
cour s</w>
con tre</w>
cl as
ch ev
c ouldn't</w>
c are</w>
ar y</w>
angl ais</w>
ak e.</w>
ain e.</w>
ag ain
ad v
a le</w>
a di
S on</w>
Bost on.</w>
A u
é ch
y s</w>
ve ill
u t</w>
u m
t ant</w>
su ch</w>
st ay</w>
seu lement</w>
ser a</w>
s ed</w>
s au
reu x</w>
res pec
re z</w>
r es</w>
r ai
pro po
por t.</w>
pla ce</w>
p our
o h
n' es</w>
mak es</w>
là .</w>
lik es</w>
lif e</w>
le c
lat e.</w>
jus qu'à</w>
is e.</w>
is ?</w>
in s.</w>
heur es.</w>
g e.</w>
es ?</w>
e !</w>
dang er
d' argent.</w>
conn aî
co û
ch ant
beau ti
b le.</w>
atten tion</w>
ar ound</w>
any more.</w>
ans w
achet é</w>
accid ent.</w>
a s.</w>
V o
ê tes-vous</w>
y 's</w>
v er.</w>
v end
u e.</w>
tur ned</w>
to p</w>
to ge
st op
sorti r</w>
sm all</w>
se con
se ,</w>
s œ
s po
s il
s enti
s ay
ri gh
re us
r om
r a</w>
n' aime</w>
n ourr
n on</w>
n es</w>
mon ey</w>
mi ght</w>
met tre</w>
me et
me di
m ent
l ate</w>
k ing.</w>
j' étais</w>
import ant</w>
heu re</w>
hav en't</w>
f ar</w>
er ai</w>
donn é</w>
day ,</w>
d ol
com ing</w>
co ff
b re.</w>
b ought</w>
b an
av ant
au tres</w>
al ement</w>
ai der</w>
ado re</w>
a x
You 've</w>
Tom 's</w>
They 're</w>
E x
2 0
win do
wat ch
v oi
travai lle</w>
tr er</w>
to r</w>
ti l</w>
t ly</w>
sur pris
su ff
spe ak
ser i
se ems</w>
se cre
s ic
ri r</w>
regar d
r ê
por ter</w>
po is
pl eu
pl ace.</w>
per du</w>
on ?</w>
nu mb
nourr itu
ni ce</w>
ne ed
mé dec
mis s</w>
lo st</w>
lear n</w>
j' avais</w>
hou se.</w>
h ,</w>
get ting</w>
fu l.</w>
f it</w>
f ais</w>
enf ants.</w>
eas y</w>
do ct
diff er
devr ait</w>
dem ande</w>
d ing</w>
con cer
child ren
car e
can not</w>
c k.</w>
b ic
b as
b ad</w>
aut ant</w>
auc une</w>
ar i
ap par
am ou
am i
ag es</w>
ac cus
V ou
Jap an
Fren ch</w>
Englis h.</w>
D onne
A u</w>
wee k
voul ait</w>
vi ent</w>
un til</w>
tu re.</w>
ten n
t y.</w>
t ez</w>
su m
su j
sor ry</w>
sol u
sle ep
seu l.</w>
s ince</w>
s ac
ri ght.</w>
r oug
r ai</w>
pré sent
premi ère</w>
pen d</w>
par ce</w>
n ame</w>
mo ther</w>
m it</w>
m ati
look s</w>
livr es</w>
l ing</w>
l arg
in t</w>
ill es.</w>
ill ed</w>
i er</w>
hop e</w>
hi er</w>
her e?</w>
h ai
gar çon</w>
f el
ex pec
eux ,</w>
er re</w>
eff or
derni ère.</w>
day ?</w>
d î
d it
cti onn
cr oire</w>
cou ver
com prend
bl ess
b é
b e.</w>
any thing.</w>
al e.</w>
ac ti
Th ese</w>
G ive</w>
G er
Every one</w>
Englis h</w>
E s-tu</w>
A s</w>
A r
é cou
was n't</w>
wai ting</w>
w ait</w>
vou dr
tr ying</w>
tr es.</w>
tr ai
th r
th ose</w>
ter n
ter min
sw im
su iv
su b
star ted</w>
so is</w>
si x</w>
se e
sci enti
s- nous</w>
s ous</w>
s ing</w>
s es.</w>
r as
questi ons</w>
qu es.</w>
prof ess
ob jec
o le</w>
no s</w>
n' était</w>
n é
n g</w>
mê me.</w>
my self.</w>
m ou
m ain</w>
lo w</w>
le -
l u</w>
l ess</w>
il les</w>
hor s</w>
hi er.</w>
he al
h ar
gr ande</w>
g er</w>
fav or
fai tes</w>
f ree</w>
f ati
fati gu
ex is
er i
er ?</w>
entend u</w>
enc es</w>
en ne</w>
en ne.</w>
ed ?</w>
ear ly.</w>
e z-
e ep</w>
e ach</w>
dét este</w>
d et
coun tr
conn ais</w>
com e.</w>
coff e
c li
bu re
book s</w>
bic yc
bi g</w>
b ook.</w>
b ir
b al
b ag
aujourd'hu i</w>
app elle</w>
ant ,</w>
ac cep
a de</w>
T ake</w>
S a</w>
O ur</w>
M ay</w>
D ans</w>
A ustr
é trang
é e,</w>
yester day.</w>
wr ite</w>
we a
wat ch</w>
w ay.</w>
vr ai</w>
vis it
vi endr
v ille.</w>
v en</w>
tô t.</w>
th ir
ter ri
teach er.</w>
te l</w>
tal king</w>
t- il</w>
t oo
sû r</w>
su l
si d
ri ons</w>
r ac
por t</w>
plu tôt</w>
pho to
pens é</w>
parti r</w>
or din
o t.</w>
nouv elle</w>
no re</w>
mu ch.</w>
mor ning.</w>
marri ed</w>
m ér
lo v
liv es</w>
lif e.</w>
li qu
l ent</w>
ke t.</w>
j et
ing s</w>
im pres
im p
il lez</w>
i di
he ard</w>
h ate</w>
h as
gl ad</w>
g é
fac ile</w>
f ur
f ic
every thing.</w>
er min
di re.</w>
d' accor
d oor</w>
d is</w>
d ed</w>
d augh
conn aiss
con c
co le</w>
ci r
ch at
c tu
b ur
b it</w>
aw ay</w>
auc un</w>
ar ro
ap prendre</w>
ap pe
ad u
ac k
Qu el
O u
O ne</w>
No body</w>
L ay
D e</w>
C ould</w>
. .
œ u
écri t</w>
é ren
you ng</w>
wor k
wor d</w>
wi f
w s.</w>
un der</w>
tur n</w>
tru e.</w>
that 's</w>
te ,</w>
t ax
sup pose</w>
stu dy</w>
so y
so ci
si de.</w>
sh ow</w>
ser ait</w>
se d.</w>
s s</w>
s oir.</w>
s ist
s is
ro om</w>
r ang
ques tion.</w>
qu' on</w>
pres que</w>
premi er</w>
pe ine</w>
p an
on c
oi re.</w>
o wn</w>
n é</w>
min e.</w>
mer ic
m' ai
là -
let tre.</w>
let ter.</w>
langu e</w>
laiss er</w>
k is
jou e</w>
ish ed</w>
imag in
im médi
ign or
i que.</w>
heureu x.</w>
heu reus
happ y</w>
h ed</w>
fr u
fel t</w>
f ou
ex per
est -il</w>
esp ère</w>
ense ign
en s.</w>
en nu
dol lar
com prendre</w>
com bien</w>
co p
children .</w>
cher ch
chang e</w>
c œ
bus y.</w>
be h
be for
b ri
ar y.</w>
angl ais.</w>
all er.</w>
ai e</w>
ai de.</w>
You 'll</w>
P eux-tu</w>
N e
J' espère</w>
J' avais</w>
J oh
H er</w>
E u
E n
D is
Com e</w>
C es</w>
0 0</w>
è te</w>
y et.</w>
worl d</w>
wat er.</w>
w ish</w>
vér ité.</w>
v ill
u su
u i</w>
tru th.</w>
tri ed</w>
ther e?</w>
ten tion</w>
tel lement</w>
te d.</w>
t' ai</w>
st ay
sem aine</w>
se c
s éri
s oir</w>
s ati
sati s
s ant
ri ère</w>
rest er</w>
ren d</w>
re ci
qu e,</w>
qu at
pouv ons</w>
poli ce</w>
pleas e.</w>
pl us.</w>
pl eur
pho to</w>
parti r.</w>
parl er.</w>
p un
p it
p ays</w>
or y</w>
or i
o ther
n or
mor t</w>
mom ent.</w>
moi ,</w>
meill eur</w>
mal ad
mag as
m auv
liv ing</w>
le g
laiss é</w>
jour .</w>
jou er</w>
in di
ig nore</w>
h au
g am
friend s.</w>
for t</w>
fi gu
fam ille</w>
fa ce</w>
f lu
f low
f in</w>
essay er</w>
es ti
er re
en ,</w>
e p.</w>
dé cid
dis t
dis pos
di x</w>
dev ez</w>
d' avoir</w>
d avant
d at
cu t</w>
con fi
ch aque</w>
call ed</w>
c ré
c eci</w>
bu s.</w>
beh ind</w>
beauti ful</w>
be d.</w>
be come</w>
b oul
at tr
ar .</w>
ap pr
am us
am .</w>
al most</w>
accid ent</w>
ac tu
V eux-tu</w>
S u
P ouv
P eu
M ay
Fren ch
Eu ro
C on
B e
Austr ali
A meric
1 9
’ ai</w>
è me</w>
you 'd</w>
year .</w>
wor king</w>
won der</w>
wh ole</w>
w ouldn't</w>
viv re</w>
vis it</w>
u re</w>
u d
tr om
ti r
sup pos
sto p</w>
sti tu
st e
some thing.</w>
situ ation</w>
s ons</w>
s af
ré par
ri ez-vous</w>
ri ch
ret ard.</w>
rend re</w>
re as
r un
r ain</w>
r ain
qu ite</w>
puis se</w>
problè me</w>
pro pos
pro p
pouv oir</w>
pourr ais</w>
pl e.</w>
pl e
pl ac
per son</w>
pay er</w>
par ents.</w>
p é
p om
p ol
oul d'
ould' ve</w>
ou gh
on s-nous</w>
o w
o ver
né cess
nourritu re</w>
ne ,</w>
n' avais</w>
n i</w>
n atu
mé ri
mom ent</w>
man qu
m' en</w>
m ing</w>
m al.</w>
lu ck
lo t.</w>
liv ed</w>
la quelle</w>
l it.</w>
l av
l augh
kno wn</w>
k y
journ ée.</w>
im porte</w>
il y</w>
i de</w>
h é
h ard
h al
gro s
gar ç
gar d
for c
f eu
f ell</w>
eu se</w>
ent e.</w>
e f
do c
doc tor</w>
dev riez</w>
der rière</w>
de cid
d'accor d</w>
d ur
d ar
cti on
comp te</w>
col d.</w>
chev eux</w>
ch anc
c oo
c ass
bu il
bo d
bet we
be au</w>
bac k.</w>
au x.</w>
arrê ter</w>
arriv é</w>
ar e.</w>
ai se</w>
ag er</w>
ac t</w>
Wh ich</w>
We 've</w>
T ous</w>
T ell</w>
M .</w>
J ust</w>
D es</w>
1 0</w>
â te
you ng
you ,</w>
y s.</w>
wr ong</w>
wr on
wh ile</w>
we ar
w er
w ard</w>
vou s,</w>
ven ir.</w>
v ue</w>
us ?</w>
uni vers
tri bu
thr ough</w>
ten ir</w>
t' en</w>
t ête</w>
t t
t oi
t elle</w>
t ard.</w>
t able.</w>
suc c
sle ep</w>
ser ai</w>
scienti fi
ré us
ré f
ri en.</w>
ret our
restaur ant</w>
regar der</w>
ra di
r y,</w>
questi ons.</w>
qu' une</w>
problè me.</w>
pouv ait</w>
por te.</w>
plaî t</w>
ph one.</w>
peu vent</w>
pas se</w>
parti e</w>
p ère.</w>
p s</w>
p le</w>
oubli é</w>
ou t?</w>
olo gi
o ti
ne cess
n' avait</w>
n' as</w>
mo t</w>
mar ch
mang é</w>
mang e</w>
m ir
m ess
lors que</w>
li eu</w>
l'é cole</w>
kno w.</w>
k il
inform ation</w>
in c
immédi at
il es</w>
ici le</w>
i que</w>
i en</w>
he av
gr ou
g ood.</w>
g h</w>
for get</w>
fin ished</w>
fi ve</w>
fen ê
f re
exper i
exp éri
exac tly</w>
eu se.</w>
est -
es si
es se</w>
en g
drin k</w>
don c</w>
do or.</w>
do g
difficul t</w>
diff icile</w>
di ed</w>
dem ain</w>
day s.</w>
d it.</w>
d el
cr az
cou p.</w>
con que</w>
col d</w>
cl ass
cin q</w>
cham bre</w>
ch ance.</w>
c t</w>
c 'était</w>
betwe en</w>
be came</w>
ar m
ap pris</w>
ap poin
an ti
an ni
am i.</w>
ais -je</w>
ag no
ag ne.</w>
We 'll</w>
Vou lez-vous</w>
Som e</w>
Som e
S '
Peu t-être</w>
No tre</w>
M es</w>
K eep</w>
J' adore</w>
G o
Fr ance.</w>
E ar
.. .</w>
écri re</w>
èr es</w>
you 've</w>
wr it
wh at's</w>
w ,</w>
vac anc
v it</w>
u es</w>
télé vis
tr ain.</w>
toge ther.</w>
ti red</w>
thing ?</w>
teach er</w>
t é.</w>
sû re</w>
str ang
sp it
sh or
sh ir
sem aine.</w>
se z-vous</w>
s pend</w>
s and
ret ard</w>
ress emb
r appel
prê t</w>
pri x</w>
pri e.</w>
pr it</w>
pr ess
possib le.</w>
piè ce.</w>
pas ,</w>
p is
p ai
n ous.</w>
mus ic
me !</w>
mat in.</w>
mak ing</w>
m as
liv re.</w>
lis ten
li t</w>
li ght</w>
li e</w>
le d.</w>
l é.</w>
l ou
l o</w>
l eurs</w>
l ,</w>
k en</w>
jo b</w>
i ght</w>
ho spit
hist oire</w>
heureu x</w>
h am
g én
fr ère</w>
fin i</w>
fas t.</w>
f ish
exac tement</w>
ex cus
eu illez</w>
et tes</w>
er ed</w>
er ais</w>
entre prise</w>
ent -
enn ent</w>
en vie</w>
en jo
el y.</w>
ed ,</w>
e z.</w>
dé c
dis cu
diff ér
di r
di .</w>
decid ed</w>
de ,</w>
davant age</w>
d' y</w>
d ess
cr u
countr y.</w>
con f
con di
commenc é</w>
com pu
com es</w>
cham bre.</w>
ch aus
ch at</w>
ch ap
ch ance</w>
c it
c ent.</w>
c ach
bre ak
b out</w>
b elle</w>
b all</w>
b ab
aut or
ati ons.</w>
ar tic
ar ti
app reci
am é
ail s.</w>
ail le</w>
ai .</w>
again st</w>
ag o.</w>
ab le
a ?</w>
V euillez</w>
To ky
S o
S e
Pouv ez-vous</w>
M er
L' homme</w>
J' aurais</w>
J an
Fr ance</w>
C an
B r
B e</w>
é cr
your self.</w>
wr itt
writt en</w>
wor ks</w>
we 're</w>
wat er</w>
voy age</w>
voul ons</w>
vo is</w>
vit e.</w>
vi eux</w>
v eux.</w>
v es.</w>
us i
ur es</w>
télé phone</w>
tr adu
ti mi
ti ent</w>
thin king</w>
th is?</w>
th em
ter s</w>
tel ling</w>
t rem
t ex
t ent
sé cur
some one</w>
si de</w>
sho w
ser vi
se z</w>
s et</w>
ré uni
ret ur
re li
re l
re fus
r aison</w>
r ais
quat re</w>
préf ér
pré par
probab ly</w>
pr è
pr ud
pr on
po si
pleas e</w>
pl an.</w>
ph ras
pati ent</w>
pass er</w>
p oi
p ain</w>
on ce.</w>
ne ig
n ’
mor t.</w>
mon de.</w>
mist ak
minu tes</w>
min d.</w>
mat ter</w>
mani ère</w>
mag az
m ère.</w>
m s</w>
look ed</w>
long er</w>
l oin</w>
k i
jeu ne</w>
j ap
jap on
ir ai</w>
ing s.</w>
in es</w>
i ez</w>
hun gr
hour s</w>
ho t</w>
him self.</w>
hi gh</w>
heu re.</w>
he ad</w>
happen ed</w>
habitu de</w>
hab ite</w>
h y
gén ér
grand -
g enti
franç ais.</w>
fr app
fol low
fac il
f our</w>
f ont</w>
f er</w>
f ast</w>
ev en
eur s.</w>
et tes.</w>
et te.</w>
er t
en voy
en ough
emb arr
el se</w>
e aux</w>
don ne</w>
dollar s</w>
di pl
d' argent</w>
d es.</w>
d en
cuis in
coup le</w>
con v
con stru
compl è
compl et
coffe e.</w>
co ver
ci p
chem in</w>
ch es</w>
ce ci.</w>
cau ght</w>
c at</w>
bé b
bus y</w>
bure au</w>
bo y</w>
bl ack</w>
befor e.</w>
beau coup.</w>
b us</w>
b il
b er
av ant.</w>
attr ap
arro g
arriv ed</w>
any one</w>
ann ée</w>
ais se</w>
ais ,</w>
ag ree</w>
ag es.</w>
ad vis
ad mi
ab l
Wh at
Tom ,</w>
T r
T ou
T o</w>
P our</w>
P ens
May be</w>
Mar ie.</w>
Fren ch.</w>
E t</w>
Com me</w>
A t</w>
0 .</w>
é ré
é p
è rement</w>
z z
you 'll</w>
y eux</w>
y !</w>
wron g.</w>
wif e</w>
wh at
wea ther</w>
vou lez</w>
vill age.</w>
vi ol
v ê
v as</w>
v al
us h</w>
té ri
ty pe</w>
tur es</w>
travaill er</w>
too .</w>
ti ve</w>
ther 's</w>
th è
ter no
tak ing</w>
t- ils</w>
t as
sy m
surpris ed</w>
suj et</w>
stay ed</w>
soy ez</w>
sou hai
som me
so le
sle ep.</w>
seu le.</w>
ser ais</w>
secre t.</w>
se ?</w>
sant é.</w>
s- mi
s we
s car
s c
s !</w>
ressemb le</w>
rend u</w>
re g
re ali
rai son.</w>
ra ther</w>
r ist
r ass
r ,</w>
prè s-mi
propo s</w>
probl em.</w>
prob le
proble m</w>
pret ty</w>
play ing</w>
per du
pass é.</w>
part y.</w>
par t.</w>
p ped</w>
p ir
p auv
p asse
our .</w>
ordin at
opin ion</w>
on e?</w>
on ce</w>
ol d.</w>
off .</w>
ob lig
o ther.</w>
o t</w>
o re</w>
nu it.</w>
no ir.</w>
ni ght</w>
n' êtes</w>
mon t
mo y
meet ing</w>
m ents.</w>
lo se</w>
lo c
li ez</w>
li br
let tre</w>
leav ing</w>
lear ned</w>
le ast</w>
l'ai de</w>
l' ét
l' hô
l' ar
l y,</w>
l er</w>
ke pt</w>
is -tu</w>
in stru
in ,</w>
im medi
hi gh
go t
g âte
froi d</w>
fort un
fil le.</w>
fer ai</w>
favor ite</w>
ex pen
every body</w>
es e.</w>
er e.</w>
ent ô
en vir
en semb
ell es.</w>
el lement</w>
eff ec
déjeu ner.</w>
dé .</w>
du c
donn er</w>
dev rions</w>
dev ant</w>
dang er.</w>
d ’
d re.</w>
d i</w>
d est
consi dé
connaî t</w>
conc entr
con st
con om
complet ely</w>
comm un
clo th
chil d</w>
cher che</w>
ch e
ch ar
cap able</w>
c ô
c tion</w>
c ook
c ent</w>
c ad
béb é</w>
bor n</w>
bo î
b â
b ed</w>
aur ait</w>
attend re</w>
as s</w>
appreci ate</w>
anc e,</w>
an k
amé li
all em
al so</w>
al read
al ,</w>
ag ne</w>
af fai
adv ice.</w>
ad dr
ac i
V oi
Tatoeb a</w>
S top</w>
Pens es-tu</w>
Par is</w>
Mar y's</w>
M r</w>
Laisse -moi</w>
L ors
Jap on</w>
J' ignore</w>
D é
D it
Ch in
C et</w>
C ert
A méri
A ll
é qui
ç u</w>
â mes</w>
z ar
z ,</w>
wi m</w>
wh e
wal k</w>
w ro
wro te</w>
w ing</w>
vrai .</w>
ver sai
v u.</w>
v ite</w>
v ing</w>
v ing
v in</w>
v ic
v au
vau t</w>
trou ver
trom p
tr op
tou ch</w>
to wn.</w>
thin ks</w>
ter s.</w>
ter re</w>
tenn is</w>
tem ent.</w>
tel .</w>
t eur.</w>
t ard</w>
t ain</w>
sœ ur</w>
suc ce
su gg
stor y.</w>
st s</w>
st ation</w>
sor te</w>
so f
sle pt</w>
sh ouldn't</w>
ser ez</w>
sec ret
sav ait</w>
s' ag
s wim</w>
s qu
s mar
s li
s er</w>
réf lé
roug e.</w>
ro w</w>
rencontr é</w>
read ing</w>
re n</w>
re f
re al</w>
r ar
prop re</w>
probab lement</w>
pri v
pouv ais</w>
pos er</w>
pl ai
pian o</w>
ph y
person nes</w>
pe o
pay s.</w>
par viens</w>
par ty</w>
p au
ouv rir</w>
oun d.</w>
or ang
open ed</w>
o is
nom bre</w>
ni gh
ne ar</w>
nag er</w>
n' avons</w>
n ess.</w>
n ation
médec in.</w>
mon th.</w>
mi gn
mar ché</w>
mar che</w>
m oun
m au
m ant
m am
lu mi
long temps</w>
lon g.</w>
lo .</w>
langu es</w>
l' homme</w>
l ed</w>
l and
l ait</w>
l ab
ke ep
k illed</w>
in v
in con
il s.</w>
il i
ide a.</w>
hel p
has n't</w>
hal f</w>
h ard.</w>
gé ni
gl ass
gir l</w>
garç ons</w>
g oo
g lis
fur ent</w>
fr on
for got</w>
for ?</w>
foo t
fil s</w>
feel ing</w>
famil y</w>
famil y.</w>
famil le.</w>
fai m.</w>
fa çon</w>
f ête</w>
f un
f ish</w>
expl o
ex er
et ?</w>
et ,</w>
essay é</w>
ess aie</w>
esp agno
er g
ensemb le.</w>
enf ant</w>
enf ant.</w>
end ed</w>
en ir</w>
en ci
em pê
em ent,</w>
el ec
dî ner</w>
désol é</w>
dé sor
dé si
don e.</w>
doct or.</w>
do g.</w>
do ?</w>
d' autres</w>
d' autre</w>
d om
cr oi
con sci
comprend s</w>
col ère</w>
co stu
co st</w>
cho is
child ren</w>
chi en.</w>
ch er.</w>
ch an
car ?</w>
caf é.</w>
c t.</w>
c lear
c aus
bro ther</w>
bir th
bi entô
beg an</w>
b all.</w>
au tom
ati ve.</w>
appréci e</w>
ap pro
ap prend
answ er</w>
an g</w>
améli or
am our</w>
am ment</w>
am is.</w>
am ie.</w>
all ons</w>
al ors</w>
air es.</w>
ain si</w>
ain es</w>
ai ll
ai der.</w>
ag ain</w>
af terno
admi re</w>
ab solu
ab an
a près-mi
a -t-
Voi ci</w>
V i
U S
Tom ?</w>
T erre</w>
S' il</w>
S pan
S h
S es</w>
P our
Ou i,</w>
Ne w</w>
Every body</w>
E s
Dit es-
Di eu</w>
Au c
- toi</w>
- même.</w>
ô le</w>
éti ez</w>
â ge</w>
z ed</w>
your self</w>
wor ry</w>
won der
wer en't</w>
watch ing</w>
wal ked</w>
voudr ais</w>
vol on
vo it
vi dé
vi de
veu lent</w>
ven ue</w>
v eux-tu</w>
utilis er</w>
usi eurs</w>
us b
u tion</w>
tr an
ti é</w>
ti ve.</w>
thé or
the y
th re
th o
ter ?</w>
ter ,</w>
tal ked</w>
tak es</w>
t our</w>
t eur</w>
t end
t ar
suppos ed</w>
su spe
su per
su n
stud ents</w>
st and
sp ir
sou viens</w>
sor ry,</w>
si .</w>
sh ould've</w>
sh i
seri ous
sem bl
see m</w>
say ing</w>
sav ez</w>
s' en</w>
s é</w>
réflé ch
ré sou
rend s</w>
ren trer</w>
ren tr
regar de</w>
radi o</w>
r on
r am
qu é</w>
qu it
pu is-je</w>
pré sid
prom is
problè mes</w>
pre par
pr end</w>
pl ain
peu t-être</w>
per fe
pens er</w>
pe in
parl é</w>
opin ion.</w>
on g
oi vent</w>
oc cas
o t
nécess aire</w>
nu mér
numér o</w>
nom b
nomb reux</w>
nom .</w>
need s</w>
n é.</w>
n et
n at
mus ique.</w>
mo indre</w>
mil li
mau vais</w>
m enti
m 'est</w>
lu i-
lors qu'il</w>
long temps.</w>
lo st.</w>
li ked</w>
li e.</w>
larg e</w>
langu age.</w>
l'in tention</w>
l'in st
l' es
l' av
l' argent</w>
l' anglais</w>
l é</w>
l ?</w>
k e.</w>
k ?</w>
jeu ne.</w>
jam ais.</w>
j e
it ted</w>
it s.</w>
interest ed</w>
in u
in st
in no
immedi at
ic al</w>
i es.</w>
i ce</w>
hom mes</w>
hist oire.</w>
him self</w>
hear t</w>
h usb
h onn
gros se</w>
gro s</w>
go ?</w>
gen re</w>
gen er
g ér
g au
fr om
fil les</w>
fi e</w>
facil ement</w>
f ête.</w>
f s</w>
f ood</w>
f illes.</w>
expen si
et s.</w>
entend re</w>
endr oit</w>
en ?</w>
empl oy
em s.</w>
em ents</w>
e ar</w>
décid é</w>
dé couver
du r</w>
dri ve</w>
dorm ir.</w>
diffic ile.</w>
diff éren
di ction
deven u</w>
des su
d' aller</w>
d é</w>
d !</w>
cro y
cou te
cor ri
complè tement</w>
comp any</w>
comp ag
clo se</w>
ci er</w>
chil d.</w>
ch ec
ce iv
cap it
c oul
c le</w>
bro ke</w>
bod y.</w>
bo th</w>
bli o
bi blio
beg in
bab y</w>
b on.</w>
b les</w>
b le
au tres.</w>
arri ver
ar e
anni versai
amou reux</w>
all ait</w>
al low
air s.</w>
ai de</w>
ai -je</w>
a k.</w>
Y or
Y es,</w>
U ni
Tatoeb a.</w>
T i
T V
Pu t</w>
Pour riez-vous</w>
O h,</w>
No ë
N ow</w>
Lors que</w>
Lay la</w>
Joh n</w>
Japan ese</w>
J' en</w>
J ’ai</w>
In tern
G o</w>
G ar
Donne -moi</w>
Ch il
ê me</w>
étudi er</w>
éti ons</w>
ét é.</w>
ég alement</w>
é cl
É tat
État s-
États- Un
y eux.</w>
y er.</w>
wor ds.</w>
wor d.</w>
wom an</w>
wom an.</w>
wh ere.</w>
vér ité</w>
voy age.</w>
vie il</w>
v ue.</w>
v ed.</w>
us ing</w>
ur g
up ,</w>
um bre
tru th
to day?</w>
ti red.</w>
ti ck
thé â
thin k.</w>
temp s,</w>
te ar
t s,</w>
t aille</w>
swim ming</w>
sur viv
suff is
su ici
stop .</w>
star t</w>
st re
st at
spo ke</w>
speak s</w>
sor t</w>
sor t
son s.</w>
so on</w>
sig ni
si onn
sel f
secon d</w>
s pr
s it</w>
s ing.</w>
s ever
s ay.</w>
s ach
ro b
righ t?</w>
ri vi
ri ch</w>
reu r</w>
respon sib
respon s
rem ent.</w>
reali ze</w>
re qu
r us
r un</w>
qu itt
qu ick
prê te</w>
préf éré
prom ise</w>
pro j
pre u
pre fer</w>
pr im
possib il
port ait</w>
plu part</w>
plu ie</w>
play ed</w>
pl usieurs</w>
pl ays</w>
piè ce</w>
pi ed
peo ple.</w>
par fois</w>
par a
p oor</w>
p oo
p es</w>
p e.</w>
or ig
or g
or der</w>
on s,</w>
olo g
occup é</w>
occup é.</w>
numb er.</w>
nouv eau.</w>
no w?</w>
no v
ne z</w>
ne ws.</w>
ne igh
ne d.</w>
nam e.</w>
n' importe</w>
n es.</w>
mus ici
mon tre</w>
mo ts</w>
meet ing.</w>
mauv aise</w>
marri ed.</w>
man u
man ag
malad e.</w>
main s</w>
ma j
là- b
lo ve.</w>
lo in.</w>
liv e.</w>
lis ten</w>
lik e.</w>
li gh
lat er.</w>
l' un</w>
l' habitude</w>
l es
l ap
l am
k ni
k in
k ey</w>
k ,</w>
j oin</w>
is i
inno cent.</w>
in vol
in tro
in stitu
in qui
in ed</w>
igh t?</w>
idé e.</w>
id enti
i re.</w>
hu m
hor ri
heal th.</w>
happen ed.</w>
h ol
h it</w>
h and</w>
h air</w>
gu ess</w>
gu er
gu e.</w>
gre at
g one</w>
g ets</w>
for ward</w>
fil m</w>
fem mes</w>
fem me.</w>
fac ile.</w>
f un</w>
f un.</w>
f our
et tre</w>
est- elle</w>
ess e.</w>
er n
ent er</w>
en te</w>
embarr ass
emb rass
eat ing</w>
e i
dé cl
dr un
dr ess</w>
dou b
dorm i</w>
dipl om
differ ent</w>
di v
dev oir</w>
dev in
dev i
dest in
des er
derni ère</w>
der ed</w>
de pend
de hors</w>
de al</w>
d' entre</w>
d ans
d ance.</w>
cu se</w>
cr y
cour ag
cou s
condu ire</w>
compl e
comm ence</w>
comm en
col ère.</w>
co pi
cl us
cho col
chaus sur
ch ed</w>
cel ui</w>
cat ch</w>
car te</w>
c er.</w>
bâ ti
boî te</w>
bou te
bo y
bo tt
biblio thè
bes o
b oire</w>
ay ez</w>
au g
au ,</w>
at ing</w>
at h</w>
appe ar
ang ry.</w>
anc ed</w>
an ci
an ,</w>
all ée</w>
ais e.</w>
ain ten
ag re
ag ent</w>
ab il
a th.</w>
W at
Vo tre</w>
T ur
T on</w>
S un
S oy
No t</w>
M ême</w>
M o
M i
M ainten
L e
Jap an</w>
Jan e</w>
It ali
F ais</w>
F ai
E ven</w>
D e
D '
Ch rist
Bost on</w>
An d</w>
étudi ants</w>
ét o
é vit
é cu
èr es.</w>
your s.</w>
young .</w>
y er</w>
y -
writ ing</w>
whe ther</w>
what ever</w>
was h</w>
w n
voul oir</w>
voit ures</w>
vis ite</w>
vie ille</w>
ver n
ven us</w>
v ille</w>
v as-tu</w>
usu ally</w>
ur al</w>
uni ver
u i-
télé phone.</w>
tru e</w>
trem bl
trav ers</w>
trav er
tr us
tr a
ton ight?</w>
toi ,</w>
toge ther</w>
to il
to day</w>
tic al</w>
ti que.</w>
ti ons</w>
ti mes.</w>
ti me,</w>
théor ie</w>
thing s.</w>
thing ,</w>
th en</w>
termin é.</w>
ten u</w>
ten .</w>
tel ev
tear s.</w>
te ach</w>
tak en</w>
t' a</w>
t on.</w>
t es,</w>
t ent</w>
t able</w>
t able
sur pris</w>
su is-je</w>
stud ying</w>
star s</w>
st ation.</w>
st airs.</w>
spe e
sou ri
some times</w>
so .</w>
sleep ing.</w>
sist er.</w>
sis ter</w>
sim ple</w>
sil enci
sic k.</w>
si è
si r</w>
si ons</w>
si on.</w>
sho t</w>
sh op
sh all</w>
sen se</w>
secre t</w>
sav oir.</w>
sav ent</w>
sand wi
s'ag it</w>
s è
s our
s oun
réus si</w>
ru m
rou te</w>
ro ad.</w>
ri r.</w>
ri ed</w>
respec t</w>
rencontr er</w>
re ?</w>
re -
rac on
r é</w>
r s</w>
r an</w>
qu oti
quoti di
qu ar
préf ère</w>
proch ain.</w>
pr un
pr ou
pr ati
pos t</w>
pois son</w>
pleur er.</w>
ple in</w>
pian o.</w>
pi re</w>
phras es</w>
pho to.</w>
ph on
per mis
p ast</w>
p ain.</w>
out !</w>
orig in
org an
or s.</w>
op en</w>
om as</w>
ol der</w>
o we</w>
o k
o '
o' clo
net to
need ed</w>
n' étais</w>
n' avez</w>
n' aurais</w>
n on
n eu
médec in</w>
mor ce
moi tié</w>
mo is</w>
mo is.</w>
mil k.</w>
mil i
mer ,</w>
meill eu
mar ry</w>
mar cher</w>
mal adi
magas in</w>
m' ont</w>
m' as</w>
lè ve</w>
lumi ère</w>
lo w.</w>
lo g
li es</w>
lev é</w>
let ter</w>
l'in téri
l'hô pit
l' ont</w>
l' heure</w>
l' eau.</w>
l' autre</w>
l' argent.</w>
l in
l ac
k ill</w>
jour ,</w>
jam b
it es.</w>
it ed</w>
is su
is -
invit ed</w>
intér ê
ing u
in side.</w>
in o
import ant.</w>
immédiat ement.</w>
im pro
im possible</w>
idi ot.</w>
hungr y.</w>
hist or
heav y</w>
he d.</w>
he 'd</w>
happen .</w>
happ en</w>
hand s.</w>
gir ls</w>
gir l.</w>
gi ven</w>
fu ture.</w>
fr ont</w>
fin ish</w>
fin e</w>
fil m.</w>
figu red</w>
figu re</w>
fi re.</w>
fer a</w>
fe u</w>
fau l
famil i
fam ous</w>
fall u</w>
fai t,</w>
fai sons</w>
fai sait</w>
fa ther.</w>
fa ther's</w>
f ar
expéri ence</w>
exis ten
ex ist
ex ig
ess ed</w>
esp ér
es !</w>
enough .</w>
enjo y</w>
end s</w>
end or
en cor
em prun
eat en</w>
eas ily</w>
ear ly</w>
e il</w>
e gg
e ce</w>
e c</w>
dét ermin
déjeu ner</w>
dé s
dé li
dé cis
drin k.</w>
dre n</w>
dre am
dr oit</w>
do wn.</w>
dis pu
dis pose</w>
dis appoin
di man
di ctionn
deven ir</w>
det ermin
de hor
d' ici.</w>
d ing.</w>
d enti
cœ ur</w>
cœ ur.</w>
cu p</w>
cour s.</w>
coun try</w>
costu me</w>
cor respon
comp li
comm and
com pris</w>
com pr
com man
col lec
cl é</w>
cin é
ci el</w>
ch oo
cert ain</w>
can .</w>
c u</w>
c lu
c elle</w>
c at.</w>
bu l
bre ak</w>
br u
br ill
br es</w>
boul ot.</w>
bicyc le.</w>
bac k
b onn
b ais
b ad.</w>
av oi
autor is
at te
at s</w>
arrê té</w>
arriv e.</w>
ar ch
ap ologi
any body</w>
an to</w>
amou reu
am bi
allem and.</w>
al s</w>
al one</w>
al lez</w>
air es</w>
ai mes</w>
advis ed</w>
ad di
W ill</w>
Toky o.</w>
Th omas</w>
Th ank</w>
TV .</w>
Soy ez</w>
S t
S m
R ien</w>
Quel qu'un</w>
P ro
P ren
P e
No s</w>
N' oubli
Mer ci</w>
M al
L i
J e
H el
Go d</w>
Gar de</w>
French ?</w>
Euro pe
Ear th</w>
Chil dren</w>
C onn
Auc un</w>
Ar rê
A t
A h,</w>
3 0</w>
œ il</w>
é s,</w>
é qu
è ne</w>
â che</w>
year s.</w>
y o
y ear</w>
x ,</w>
worl d.</w>
wor th</w>
wor ked</w>
week -
wear ing</w>
we ar</w>
w ay
w ant.</w>
w !</w>
vê tem
vé lo</w>
vé lo.</w>
vo is
viv ent</w>
ver re</w>
v ont</w>
v ement</w>
us es</w>
us ,</w>
underst and
télévis ion</w>
té s</w>
trop .</w>
tri p</w>
travaill é</w>
tran qu
tr aff
traff ic</w>
to ?</w>
ti que</w>
ti f</w>
ti ce</w>
ti c</w>
the ory</w>
that ,</w>
th s</w>
telev is
tal k.</w>
t- elles</w>
t ête.</w>
t ée</w>
t un
t ing.</w>
t !</w>
sœ ur.</w>
suffis amment</w>
suc re</w>
su re.</w>
su ite.</w>
stud ent</w>
sto re</w>
st y
st and</w>
st ?</w>
spo ken</w>
son g
sole il</w>
sol ve</w>
so on.</w>
so on
so it.</w>
sho es.</w>
sh ar
ser ont</w>
ser as</w>
senti ments.</w>
sen se.</w>
see ing</w>
satis fi
sai s.</w>
s s
s ound</w>
s end</w>
s ang
ré veill
ré p
ré alis
roug e</w>
room ?</w>
ro ss</w>
ro ck</w>
ri ver.</w>
restaur ant.</w>
rest é</w>
res ul
rencontr er.</w>
regard é</w>
reas on</w>
re çu</w>
re venir</w>
re jo
re fu
re co
re ceiv
r s.</w>
r es.</w>
r ent</w>
quick ly.</w>
quel conque</w>
qu ement</w>
pun ctu
préfér é</w>
propo si
profess eur</w>
prof essi
probl ems.</w>
pro pr
pro gr
pro che</w>
port un
popul ation</w>
pon ctu
poli ce.</w>
po w
pleas e?</w>
plaî t,</w>
pl y</w>
pl ais
pis c
pi zz
pi ed</w>
pi ece</w>
perdu .</w>
per su
per son.</w>
pauv re</w>
pati ence.</w>
pa tr
pa ce</w>
p éri
p ing</w>
p en</w>
other s.</w>
os op
open .</w>
op portun
on t-ils</w>
on ed</w>
ol .</w>
oi g
off ice</w>
off ice.</w>
off ic
o per
nouv elles</w>
nouv elles.</w>
no thing.</w>
necess ary</w>
ne t.</w>
ne ar
nag er.</w>
n' ont</w>
n ée</w>
music .</w>
mu l
moy en</w>
moun t
mon trer</w>
mon tr
moi -même.</w>
mo ved</w>
mo ther.</w>
mi r</w>
mi eux.</w>
meilleu re</w>
mar k
m' avez</w>
m' appel
m é</w>
m ur
m i</w>
m es
m emb
lé g
lun ch.</w>
lon gu
li re.</w>
li bre</w>
leg s.</w>
le z.</w>
le ?</w>
langu age</w>
l'é trang
l' em
l' anglais.</w>
l' an</w>
l' al
l s.</w>
l it
l ess
l er.</w>
l em
k o</w>
k it
kit ch
k ind
j eux</w>
is te.</w>
ir ent</w>
intellig ent.</w>
in sul
in cre
in ?</w>
imp liqu
imag ine</w>
ill é</w>
ill .</w>
il à</w>
il y.</w>
il osop
i ze</w>
i m</w>
i ght.</w>
hé ro
hy po
hur t.</w>
hur ry.</w>
hu it</w>
hour .</w>
hospit al</w>
him ?</w>
him ,</w>
heureus e.</w>
heureu se</w>
h and.</w>
gu it
gr at
gr an
got ten</w>
go û
go vern
go es</w>
gl ass</w>
girl s.</w>
girl friend.</w>
gi ves</w>
gi e</w>
gam e.</w>
g é</w>
g ol
g ni
g ent
g ar</w>
g ame</w>
fu mer</w>
fu l
froi d.</w>
fr ère.</w>
for e
foo d.</w>
fish .</w>
fin ally</w>
fer ais</w>
fatigu é</w>
ey es</w>
ey es.</w>
expec ted</w>
expec t</w>
erre ur.</w>
erre ur
er ing</w>
envoy é</w>
ent- ils</w>
ent y</w>
enn em
en semble</w>
en gag
en em
el s</w>
eas y.</w>
ear th
e- toi</w>
e f</w>
dî ner.</w>
désol ée</w>
découver t</w>
dé ci
dé b
donn a</w>
doct eur</w>
do wn
div or
dis cover
din ner</w>
din ner.</w>
di g
di e</w>
derni er</w>
demand er</w>
dem ent.</w>
de cis
de ci
dar k.</w>
d ays</w>
d ate</w>
d am
cuis ine.</w>
cu ri
cti ons</w>
cour ant.</w>
cour age</w>
conv ain
cont inu
cont ent</w>
consi dered</w>
confi ance</w>
concer t</w>
con tribu
comple te</w>
compl ain
com fort
cloth es.</w>
cle an</w>
clas se</w>
clas s</w>
clas s.</w>
choi x.</w>
cho ses.</w>
chem ise</w>
charg e</w>
chap eau</w>
chang er</w>
ch at.</w>
ch ante</w>
ce pt</w>
cat s.</w>
c ity.</w>
c eux</w>
c em
c arri
c and
bus in
bro ther.</w>
br û
bo ys</w>
bo is</w>
bl on
bientô t</w>
bi ère</w>
bi zar
ban an
bal le</w>
b u</w>
b lu
b .</w>
av i
aut our</w>
aug ment
au th
attrap é</w>
attend s</w>
atten d</w>
ation ?</w>
ati ve</w>
at es</w>
ass ist
as su
as le
as ham
artic le</w>
appel é</w>
ap parti
anim al</w>
an nu
am ie</w>
all és</w>
al tern
al ong</w>
al ité</w>
ain ed</w>
ai t-il</w>
af in</w>
ad or
ad m
actu ally</w>
ach .</w>
ac t
ac ross</w>
abl es.</w>
ab sent</w>
ab les</w>
Wh o
W i
V oy
Un ited</w>
T V</w>
T '
Sm ith</w>
S pe
S how</w>
S al
Par is.</w>
P rom
P ourr
P l
P as</w>
O n
No ,</w>
Mainten ant</w>
L on
L ind
J' y</w>
J u
J im</w>
H e
Fai tes</w>
Ex cuse</w>
Est -il</w>
Ch ris
Cert ains</w>
C ro
C or
C ol
C eci</w>
B u
Au jourd'hu
Arrê tez</w>
All em
Al g
A ng
A m</w>
3 .</w>
20 1
' t.</w>
! "</w>
éto iles</w>
ét e
ét at</w>
én é
én or
én er
écu reu
éch ou
é v
é pous
é lic
é lec
é ci
ç on.</w>
ç a,</w>
États-Un is</w>
x i
windo w.</w>
wh ose</w>
w sp
wsp ap
w ine</w>
w ine.</w>
w ed</w>
vêtem ents</w>
vér it
vé ni
véni ent</w>
vé cu</w>
vou lez-vous</w>
vol ution</w>
visit ed</w>
vis i
vi es.</w>
vend re
ve get
vacanc es</w>
v el
v ali
v ach
us hed</w>
underst and.</w>
un cle</w>
u re.</w>
télévis ion.</w>
tu er</w>
trou ble.</w>
tri es</w>
tri but
travaill er.</w>
tr ic
tou tes.</w>
tou jours.</w>
tomorro w?</w>
tomb é</w>
to t
ti s
thir st
thirst y.</w>
th y</w>
th es
ter re.</w>
te z-moi</w>
te am.</w>
t ment</w>
t in
t est
t ai
sé par
sym bo
suj et.</w>
suiv re</w>
sub jec
su n</w>
stupi de.</w>
str ong</w>
stor e.</w>
spe ci
sp éci
sp ent</w>
sorti r.</w>
sor ry.</w>
some thing?</w>
sol di
soi ré
so li
so c
smo king</w>
smo k
sic k</w>
servi ce</w>
sel on</w>
secret s.</w>
se pt</w>
se en.</w>
se a.</w>
sc en
sau f</w>
sai d.</w>
saf e</w>
sa c</w>
s oul
s ite</w>
s ick
s ement</w>
réuni on</w>
réuni on.</w>
résou dre</w>
répon dre</w>
ré sul
ro ad</w>
ri de</w>
ri che</w>
ri che.</w>
ri ch.</w>
ren contre</w>
rememb er.</w>
reg ret
reco gni
receiv ed</w>
read ing.</w>
re ven
re cherche</w>
rap i
rapi dement.</w>
r è
r hu
r appelle</w>
r ag
r ab
qu ’
puis s
publi c</w>
publi c.</w>
prê ter</w>
prom en
profess eur.</w>
produ it</w>
produ c
proch ain</w>
problè mes.</w>
pro te
pro per
pro jec
pr ac
post e.</w>
port é</w>
popul ar</w>
poo l.</w>
pl eut</w>
ph ilosop
peti t-
person ne.</w>
person n
per dre</w>
pens es-tu</w>
pen se.</w>
pay é</w>
pass ed</w>
par lez</w>
p â
p y
p li
p eur.</w>
p el
p at
p aid</w>
p agne.</w>
ouver t</w>
ouver n
other s</w>
or d</w>
op ér
onc le</w>
on ne</w>
on e's</w>
oi e</w>
occup ée.</w>
o'clo ck.</w>
o s.</w>
nigh t?</w>
neigh bor
neig e.</w>
ne wspap
nam e?</w>
n y</w>
n ess</w>
mus eu
morce au</w>
mon di
mo vie</w>
mo vie.</w>
mo ve</w>
mo ts.</w>
mo der
mist ake.</w>
min im
mess age</w>
medi c
mat ter.</w>
mar r
mang er.</w>
man quer</w>
man que</w>
main s.</w>
m our
m ille</w>
m em
m el
m aî
lé gu
lui- même.</w>
luck y</w>
luck y.</w>
lo ves</w>
lo ved</w>
li fe
lef t.</w>
le ver</w>
lav er</w>
langu e.</w>
langu ages</w>
langu ag
l'intéri eur.</w>
l' eau</w>
l' au
l' année</w>
l' amour</w>
l ine</w>
l and</w>
l ait.</w>
l ais
ju g
ju d
journ ée</w>
journ al</w>
japon ais.</w>
j' en</w>
j ur
it er</w>
is t</w>
ir re
intérê t</w>
interest ing</w>
intellig ent</w>
ing é
incon vénient</w>
in ju
in a</w>
impres sionn
import ant
immédiat ement</w>
immediat ely</w>
ill er</w>
ic .</w>
hur t</w>
hu man</w>
hom me.</w>
ho tel</w>
her self</w>
hel ped</w>
hear t.</w>
he ad
hard ly</w>
happen ?</w>
hai r.</w>
h â
h old</w>
gu ys</w>
grou pe</w>
gr ap
girl friend</w>
gar age.</w>
g ouvern
fu ture</w>
fu ll</w>
fru it.</w>
fortun at
for t.</w>
for .</w>
foot ball.</w>
fon ctionn
follow ing</w>
flow ers.</w>
fl oor</w>
fl eurs.</w>
fir st.</w>
fin i.</w>
fil s.</w>
fi x</w>
fi x
feu .</w>
fenê tre.</w>
fen être</w>
feel ings.</w>
fatigu é.</w>
fas se</w>
fac e.</w>
f ê
f illed</w>
f at</w>
ey e</w>
exp liqu
ex tr
ex cit
ex c
even ing.</w>
ev er.</w>
eux -
eur ,</w>
eu ro
et y</w>
et h</w>
est ,</w>
ess es.</w>
es cap
es c
er reur</w>
ent ed</w>
encor e.</w>
enc es.</w>
enc e,</w>
en erg
en -
effor ts.</w>
ear th</w>
e qu
e ful</w>
e du
e -t-il</w>
désor mais</w>
dé tru
dé rang
dé pê
dé pend</w>
dé f
drun k</w>
dr aw
dou ble</w>
dor t</w>
dor mir</w>
do es.</w>
dis tribu
dis par
dis cus
di cu
dev int</w>
des c
demand a</w>
dehor s.</w>
de d.</w>
de ath</w>
de ad.</w>
daugh ter.</w>
d' eau.</w>
d ur.</w>
d oul
d oivent</w>
d eux.</w>
d ate.</w>
cô té</w>
cry ing.</w>
cro s
cri min
cou pe</w>
coo l</w>
conse ils.</w>
connaî tre</w>
conn u</w>
condi ti
con vers
compu ter.</w>
compag ni
com pos
co at</w>
clear .</w>
cle ar</w>
cl ou
choi ce.</w>
cho se,</w>
chau d</w>
chat s.</w>
ch ur
ch on</w>
ch ino
cert ains</w>
cel ui-
care ful</w>
care ful.</w>
car ry</w>
caf é</w>
c tion.</w>
c s</w>
c ity</w>
c es.</w>
c ase</w>
bro ther
bro ken</w>
break fast.</w>
bre ak.</w>
br ought</w>
boul ot</w>
book s.</w>
bo x.</w>
bl ood</w>
bi ère.</w>
bes t.</w>
be er.</w>
b y
b un
b our
b ons</w>
b all
b ad
avoi d</w>
av er
au riez</w>
au par
atu re</w>
at ed.</w>
asham ed</w>
as sur
arrê ter.</w>
arriv er</w>
ar gu
apprend re.</w>
apparti ent</w>
ap pl
answ er.</w>
and ,</w>
anc y</w>
an ks</w>
alread y.</w>
allow ed</w>
all ais</w>
ak ing</w>
ail le.</w>
ai der
ag gr
affai res</w>
ad res
acti vit
accus ed</w>
ac t.</w>
ab sur
ab road.</w>
ab out.</w>
ab o
a-t- elle</w>
a qu
Vi ens</w>
Tou tes</w>
Su is-je</w>
Span ish
Se e</w>
S us
S ou
S ince</w>
S avez-vous</w>
S ans</w>
Re gar
R us
Qu' as-tu</w>
Pren ez</w>
P ri
Noë l</w>
No thing</w>
N'oubli e</w>
N on,</w>
Mon tre
M ets</w>
M ake</w>
M ag
Japan ese.</w>
Jap on.</w>
Jap an.</w>
J' essaie</w>
J' apprécie</w>
J us
J ou
I s
H ow
G u
G re
F ri
F e
Ex cus
E sp
E i
Dites- moi</w>
Dis -moi</w>
Ch ar
Bo th</w>
B ri
B ien</w>
Av ec</w>
Ang le
A n</w>
A im
A f
1 0
0 00</w>
" .</w>
" ,</w>
œu fs</w>
étudi e</w>
étrang e</w>
équi pe</w>
écr as
écl at
éch ec
é veill
è te.</w>
è re,</w>
à -
z oo
y eux,</w>
y et?</w>
x -
worl d
wor ds</w>
wif e.</w>
week end.</w>
we dd
watch ed</w>
was te</w>
was h
w ore</w>
w on</w>
w in.</w>
w ard.</w>
w ake</w>
vrai ment.</w>
voy ag
vol un
viv re.</w>
visit er</w>
vis age</w>
viendr ai</w>
viendr a</w>
ver ti
ven ait</w>
vacanc es.</w>
v ues</w>
v ing.</w>
v eau</w>
v ase</w>
up stairs.</w>
umbre l
umbrel la</w>
u mer</w>
té nu
té lé</w>
té lé.</w>
tu é</w>
tri p.</w>
tre e.</w>
tre ated</w>
travai l
trans l
tr ave
trave l</w>
tr adi
tou t,</w>
tou ched</w>
ton ight.</w>
tomb er</w>
tomb er.</w>
to tal
tir é</w>
tir er</w>
tick et</w>
tic ket.</w>
ti m
ti es</w>
thé mati
thre w</w>
they 're</w>
ther e's</w>
th ou
th ank</w>
terri ble</w>
terri bl
ter net.</w>
tenn is.</w>
tel e
te en.</w>
te ch
tax i</w>
tas se</w>
tal ks</w>
t' aider</w>
t ap
sécur ité</w>
sécur ité.</w>
sy st
swim m
sup pl
suppl é
sup er</w>
sum mer.</w>
succe ed
succeed ed</w>
succ ès</w>
su sp
su it
su gar
su dd
stupi d</w>
str on
stat ue</w>
st ep
sou s-
sou ff
sou ci
sor tes</w>
son ,</w>
some where</w>
soci été</w>
so l</w>
smo ke</w>
sm all.</w>
sk i
siè c
situ ation.</w>
sig ne</w>
shor t</w>
shir t.</w>
sh e's</w>
sh e
sever al</w>
sent ences</w>
semb les</w>
se x
se t.</w>
se par
se at.</w>
sal le</w>
saf e.</w>
s' appelle</w>
s port
s pi
s old</w>
s no
s low
s '</w>
répar er</w>
ré vé
ré sid
ré jou
réjou is</w>
run ning</w>
rou te.</w>
rom an</w>
righ t,</w>
ri re.</w>
ri fic
ri dicu
ress our
res our
res ,</w>
reli gi
ref used</w>
re venu</w>
re pai
re mer
re mar
re gre
regre t</w>
re connaiss
re ach
rappel er</w>
r ôle</w>
r ons</w>
r ay
r ain.</w>
quit ter</w>
qu' au</w>
qu oi.</w>
présent er</w>
pré ven
pré sent</w>
prof on
produ ire</w>
pro vi
pro té
pri ce</w>
preu ve</w>
pres ent</w>
prend s</w>
pr ouv
pos sè
port ée</w>
por te
pol lu
pois on.</w>
po t
pl enty</w>
pisc ine.</w>
pic ture</w>
phy sic
phy si
photo s</w>
pas t.</w>
part i</w>
parl ent</w>
par o
par k.</w>
par fai
par c.</w>
pap ier</w>
pain ted</w>
p ur
p sy
p s.</w>
p il
p er</w>
out ons</w>
ordinat eur</w>
ordinat eur.</w>
or ity</w>
or der
or at
onn é</w>
onc er</w>
on es</w>
om e.</w>
om b
oh am
occup er</w>
occas ion.</w>
ob j
o ver.</w>
numb er</w>
nu lle</w>
nov el</w>
nouv el</w>
nourritu re.</w>
nom bre
nombre uses</w>
ner ?</w>
ne ws</w>
nat ural</w>
n ô
n s</w>
n ?</w>
my st
my self</w>
mount ain.</w>
mor ning</w>
mo t.</w>
mis sed</w>
mir ac
minu te.</w>
min e</w>
mil k</w>
mi enne.</w>
mer veill
mati n</w>
mari é</w>
mari er.</w>
mar re</w>
mar ket.</w>
mar i</w>
manag er.</w>
magas in.</w>
ma thémati
m eu
m en</w>
m ach
là-b as</w>
lun ettes.</w>
lun di.</w>
lun ch</w>
lo ts</w>
liv es.</w>
lik ely</w>
libr ary.</w>
li èrement</w>
li m
lem an.</w>
leav e.</w>
lear ning</w>
le çon</w>
le t.</w>
lar mes.</w>
l'étrang er.</w>
l'inst ant.</w>
l' une</w>
l' heure.</w>
l' exam
l y
l our
l ors</w>
l end</w>
l az
laz y.</w>
l aw
l a.</w>
kin ds</w>
ki ds</w>
ke ys.</w>
k s.</w>
k id
jou é</w>
jeu .</w>
j ard
it ec
is tes</w>
is t.</w>
is s
is me</w>
is hed.</w>
intro du
inter nation
ingé ni
ing !</w>
incre as
imagin er</w>
ill ing</w>
il la</w>
il ,</w>
ig n</w>
i e,</w>
i ch
hô tel</w>
hur ried</w>
hun d
hund red</w>
hour s.</w>
hop e.</w>
hom e
ho tel.</w>
hel d</w>
hau t</w>
hap s</w>
hand le</w>
hab it
h ood.</w>
h ob
h at</w>
h ang
h ?</w>
gâte au</w>
gu il
gro w</w>
great est</w>
grat ul
grand- mère</w>
gran des</w>
gr and.</w>
govern ment</w>
go ,</w>
gn ée</w>
glass es.</w>
gh o
gent leman.</w>
gen i
ge ons</w>
gard en.</w>
gar e.</w>
gar der</w>
g a
fu tu
fu ll
fu c
fru it</w>
franç ais,</w>
fr équ
fr ay
fort une</w>
forc ed</w>
for m</w>
fol low</w>
fin alement</w>
f ro
f lo
f e</w>
f ass
ez- moi,</w>
ey ?</w>
expl ain</w>
experi ence</w>
expensi ve</w>
exer c
exam in
ex empl
ex cel
every one</w>
ev id
eu sement</w>
eu s</w>
espagno l.</w>
es pe
er r
er a.</w>
entr ée</w>
entr aî
entend s</w>
ent s,</w>
ent ly</w>
ent ?</w>
enseign ant.</w>
end ro
end ing</w>
empl oi</w>
empl oi.</w>
em on
el ls</w>
el ing</w>
egg s</w>
ef fray
ed !</w>
earth qu
e f.</w>
e br
dét ails.</w>
décl ar
décid a</w>
déc ouvrir</w>
duc ed</w>
dri ez-vous</w>
dr ank</w>
dr a</w>
don ne
do or
do ing?</w>
dis cours</w>
dis ait</w>
dis -tu</w>
direc tion</w>
diman che.</w>
difficul t.</w>
differ ence</w>
diction ary.</w>
di am
devi ent</w>
dev oi
det ails.</w>
dessu s</w>
derni er.</w>
depend s</w>
de fe
de -
danger ous</w>
danger eux</w>
d' écrire</w>
d' acheter</w>
d' ab
d ents</w>
d an
cul ture</w>
cu te</w>
ct at
cro w
cri me.</w>
craz y</w>
craz y.</w>
cr oit</w>
cous in.</w>
corri ger</w>
correc t</w>
copi es</w>
coo l.</w>
convers ation</w>
consi der</w>
conse il.</w>
conf is
condu is
con tribut
con sac
comp an
commen ça</w>
comm ent
com mer
clo sed.</w>
cl és.</w>
cl ai
ci ble.</w>
chois ir</w>
choi x</w>
choi ce</w>
chem ise.</w>
chaussur es</w>
chau d.</w>
chat s</w>
chang é.</w>
chang ed</w>
ch é.</w>
ch u
ch ing</w>
ch es.</w>
ch all
cert aine</w>
cert ain.</w>
cert ain
cel ebr
cat ed</w>
cass é</w>
car s</w>
car d.</w>
can cer.</w>
cad eau</w>
c ted</w>
c ook.</w>
c ents</w>
c ens
c ake</w>
c '
bure au.</w>
buil ding.</w>
br ing</w>
bonn es</w>
bo ther</w>
bless é.</w>
bl anc
birth day</w>
bicyc let
bet ter.</w>
beso in.</w>
bais er</w>
b y.</w>
b oit</w>
b lo
b it
b et</w>
b en
b att
aw ake.</w>
ave ?</w>
aus si.</w>
aupar avant.</w>
au rions</w>
au -
ation al</w>
at ti
asse oir</w>
arriv é.</w>
arriv er.</w>
arch itec
ar a
après-mi di.</w>
appar eil</w>
app le</w>
app ed</w>
ap ar
any one.</w>
ant s,</w>
anniversai re</w>
ang ry</w>
and s</w>
anc es.</w>
an xi
an ak
an ?</w>
ami es.</w>
al one?</w>
al liez</w>
al im
al es</w>
al ent
aisse z</w>
aisse z-vous</w>
ais es</w>
aim ait</w>
ai ment</w>
agre ed</w>
afterno on.</w>
af faire.</w>
adm itted</w>
addr ess.</w>
ad mis</w>
ad mir
ad er</w>
ad e.</w>
ad ap
accus é</w>
accep ter</w>
ac ted</w>
ac k.</w>
ac cept</w>
ab out?</w>
a p</w>
a jou
a .
You 'd</w>
Yor k.</w>
Wh ose</w>
We 'd</w>
Wat ch</w>
W ere</w>
Vo s</w>
V a</w>
Un fortunat
US A</w>
Toky o</w>
To day,</w>
Ti me</w>
Th ose</w>
T u
T ry</w>
Sun day.</w>
Some one</w>
S tat
Rus si
R é
Qu i
Pe ople</w>
P res
P rends</w>
P ense
P au
O s
O h</w>
O K
N ancy</w>
Mon day.</w>
M oi</w>
M at
M any</w>
M ais</w>
Le ave</w>
Lay la.</w>
Laisse z-moi</w>
L u
L ook</w>
L angu
K yo
J' irai</w>
J' admire</w>
It 'll</w>
In ternet.</w>
H i
H ere</w>
Ger man.</w>
G r
French ,</w>
F or
Euro pe</w>
E very</w>
Donne z-moi</w>
Dis po
Di dn't</w>
De puis</w>
D em
Chin ese</w>
Ch aque</w>
Cel ui</w>
Can ad
C o
C all</w>
Bo b</w>
B y</w>
B re
B ill</w>
Ap pel
An y</w>
An y
Améri c
Al le
Af ter</w>
A s
5 0</w>
3 0.</w>
201 3.</w>
19 8
19 7
, "</w>
évit er</w>
éren ce</w>
écou ter</w>
éch app
é puis
é lè
é lu</w>
è v
è s.</w>
è n
è ce</w>
â ce</w>
» ,</w>
zoo .</w>
z e.</w>
yester day?</w>
y th
y p
y et</w>
y ed</w>
x im
windo w</w>
wh y.</w>
wh ite</w>
wh ile.</w>
wear s</w>
we ir
war ned</w>
wal k.</w>
wai ted</w>
w oo
w illing</w>
w il
w ich</w>
w as.</w>
w ard
vrai e.</w>
voudr ait</w>
volun te
volon t
ving t-
vill age</w>
vi end
ver re.</w>
vend u</w>
vend re</w>
vel op
ve ille</w>
v is</w>
v in.</w>
v e,</w>
v as
v a-t-il</w>
us eful</w>
ur ry</w>
up ?</w>
underst ood</w>
un e.</w>
u t.</w>
u m</w>
u es.</w>
té es</w>
té es.</w>
tw o.</w>
tur es.</w>
tu m
truth ,</w>
tru th</w>
trou ble</w>
tri p
tre es</w>
trans late</w>
tranqu ille</w>
tr ust</w>
tr on
tr ente</w>
tour n
tou cher</w>
total ement</w>
tor t.</w>
to ys.</w>
to p
timi de.</w>
ti é.</w>
ti z
ti ons.</w>
ti ci
thir ty</w>
ther e,</w>
the at
th row</w>
th out</w>
th ous
th i
ten te</w>
ten d</w>
tel y</w>
tel ls</w>
tech no
te z.</w>
te z-vous</w>
te eth</w>
te am</w>
tax i.</w>
tal king.</w>
table au</w>
t y?</w>
t re,</w>
t est.</w>
t es-tu</w>
t all</w>
t all
t ."</w>
sym pa
susp ici
sur prise</w>
supplé ment
sup por
sum mer</w>
suff it</w>
su y
su gar</w>
stupi d.</w>
stud ent.</w>
strang e</w>
str ic
str ai
stor y</w>
star ting</w>
stand ing</w>
st s.</w>
st e.</w>
spee ch.</w>
soy ons</w>
souv enir</w>
soun ds</w>
souhai te</w>
sou ti
sou ci</w>
sor s</w>
somme il</w>
som met</w>
sol dat
sol .</w>
soi x
soi f.</w>
so it,</w>
sm il
sm ells</w>
sk y</w>
sk ir
sing le</w>
sil ent</w>
signi fie</w>
signi fic
sig n</w>
sick ,</w>
si ght</w>
si ez</w>
sho t.</w>
shir t</w>
sh oc
sh eep</w>
sh are</w>
sent i</w>
sent ence</w>
sent ence.</w>
sen te</w>
sen sib
sen si
semb lez</w>
sel l</w>
se cr
scientifi que.</w>
scientifi c</w>
sch edu
scen e</w>
say ?</w>
sav ons</w>
satisfi ed.</w>
sang .</w>
sand wich</w>
sai sir</w>
s' était</w>
s port.</w>
s ph
s oin</w>
s now</w>
s low.</w>
s it
s even</w>
s cre
s cr
s ays</w>
s auv
s at</w>
s ais
résul tat
ré sol
ré s</w>
ré gu
ré g
ré ellement</w>
ré du
rè g
run s</w>
ro s
ro r</w>
ro be</w>
ro .</w>
rivi ère</w>
rivi ère.</w>
ri v
ri ge
ri de
ri d</w>
ri .</w>
retour ner</w>
rest ée</w>
respec ter</w>
res te</w>
res si
res cu
rend ez-vous</w>
remer cier</w>
rem è
rejo indre</w>
refu se</w>
recogni ze</w>
re voir</w>
re voir.</w>
re ti
re présent
re port.</w>
re pas</w>
re ly</w>
re l.</w>
re comm
re cherch
re ad.</w>
re ach</w>
rap id
rais ons</w>
rain ing</w>
r ing</w>
r av
r at
r ase</w>
r an
r ami
r ait</w>
quitt é</w>
qui et.</w>
questi ons,</w>
quel les</w>
qu' elles</w>
qu it</w>
py rami
pu zz
prépar er</w>
préféré e.</w>
prou d</w>
prote ct</w>
propr es</w>
proposi tion.</w>
promis es.</w>
prom esses.</w>
proj et</w>
proch aine</w>
prob able</w>
pro pri
pris on.</w>
pris es</w>
pris e.</w>
prin cip
prin c
pret ty.</w>
pres s</w>
pres id
prepar ed</w>
prac tic
pr ie</w>
pr en
post er</w>
possibil ité</w>
posi tion</w>
pos é</w>
port er.</w>
port able.</w>
pom mes</w>
poli cem
poin t.</w>
poi ds</w>
po ck
plu ie.</w>
pleu voir</w>
pleas ed.</w>
plac e,</w>
pl ant
pl ans</w>
pl age.</w>
pied s</w>
pied s.</w>
pi re.</w>
pi gg
pigg y</w>
pi geons</w>
physic al</w>
ph rase</w>
peti tes</w>
peti t.</w>
per te</w>
per mis</w>
per dre.</w>
per anto</w>
pen sez-vous</w>
pay ing</w>
pati ence</w>
parti cu
parti cip
parl ait</w>
para pluie</w>
par ie</w>
par donn
pap i
pap er</w>
pap a</w>
p é</w>
p us</w>
p ing.</w>
p ick
p eux-tu</w>
p age</w>
ouver te.</w>
out side.</w>
our s</w>
our ite</w>
oun d
oun ce</w>
ou x.</w>
ou s,</w>
or e
or der.</w>
oo t</w>
oo d
onn a</w>
on ais</w>
om en</w>
ol i</w>
ois eau</w>
off ens
occu pe</w>
o ?</w>
o ,</w>
n’ est</w>
no y
no t.</w>
no ir</w>
no ir
ni veau</w>
newspap er</w>
netto yer</w>
ner vous.</w>
ne l</w>
ne e
natu re</w>
n y.</w>
n itu
n et</w>
n ers</w>
n ations</w>
n aiss
n age</w>
mé d
mus ée</w>
mus ique</w>
mus ic</w>
mor al</w>
mont agne</w>
mon ter</w>
mon ey?</w>
minu tes.</w>
minu te</w>
mign onn
meu bles</w>
mes ure</w>
me ant</w>
me an</w>
mat ters</w>
mat ch</w>
mari er</w>
mar te
mar che.</w>
mant eau</w>
man ,</w>
man 's</w>
malad e,</w>
magaz ine</w>
m'ai der.</w>
m' indi
m'indi quer</w>
m ét
m outons</w>
m ic
m eur</w>
m ets</w>
m ents</w>
m ent,</w>
m as</w>
là ,</w>
lov e?</w>
lov e,</w>
loc al</w>
lo ss</w>
lo gi
listen ing</w>
listen ed</w>
li quer</w>
li on</w>
li es.</w>
li ber
lear n.</w>
le ts</w>
le quel</w>
le g.</w>
le -moi</w>
lac .</w>
la w.</w>
l'hôpit al</w>
l'ar t</w>
l'ai se</w>
l'ai de.</w>
l' univers
l' hum
l' histoire</w>
l' expérience</w>
l' avoir</w>
l is</w>
l ine.</w>
l ang
l and.</w>
l aisse</w>
kis sed</w>
kis s</w>
keep s</w>
jus tice</w>
jo lie</w>
jeu nes</w>
jard in.</w>
jamb es</w>
j' y</w>
it !</w>
issu e.</w>
is er</w>
ir a</w>
invol ved.</w>
intéress é</w>
inter est</w>
institu teur</w>
inqui ète</w>
inju red.</w>
in ven
in te</w>
in sist
in s
in i
in flu
in e
in dé
impres sion</w>
impres sed.</w>
important es</w>
ig ner</w>
ig ne</w>
ick en</w>
ici al</w>
i est</w>
i es</w>
i des</w>
i a</w>
hâ te</w>
husb and.</w>
hu mili
hu ge</w>
hou se?</w>
hospit al.</w>
honn ête.</w>
hon te</w>
hom e?</w>
ho li
histor y.</w>
hi de</w>
heureus ement,</w>
help ?</w>
heal th
he ad.</w>
he 'll</w>
hau st
happen ing.</w>
habitu de.</w>
h oo
h air
h a
gér er</w>
gu erre</w>
gu e</w>
grand- père</w>
grand s</w>
grand father</w>
grand ,</w>
gr é</w>
gr atu
gouvern ement</w>
glass es</w>
genti ll
gar s</w>
gag ner</w>
gag ne</w>
ga ther
g us
g un.</w>
g or
g er
g as
g are</w>
full y.</w>
fu ton.</w>
fu mer.</w>
fu l,</w>
fu ck</w>
friend s</w>
fr an
for give</w>
follow ed</w>
fo is,</w>
fo i</w>
flo or.</w>
fl eurs</w>
fin ished.</w>
fin e.</w>
fi ght.</w>
fi ed</w>
ff .</w>
fer mer</w>
fe et</w>
fav ourite</w>
fai s-tu</w>
f élic
f us</w>
f ou</w>
f ing
f ant
fant ô
experi ence.</w>
expensi ve.</w>
exp liquer</w>
existen ce</w>
exer cis
exercis e.</w>
ex haust
every body.</w>
ev ine</w>
ev e</w>
eur re</w>
eu ses</w>
eu .</w>
et er</w>
esti m
est s</w>
est ed</w>
essi ve</w>
ess enti
ess ?</w>
ess ,</w>
escap e</w>
es sion</w>
erreur s.</w>
eri a</w>
er t.</w>
er s,</w>
er re.</w>
er ed.</w>
er ai.</w>
envoy er</w>
envir onn
ent u
ent es</w>
ent es.</w>
ent 's</w>
ennem i</w>
enn es</w>
energ y</w>
enem y</w>
enc y.</w>
en ver
en v
en se</w>
en i
en fu
empê cher</w>
elec ted</w>
el y,</w>
el se.</w>
effor ts</w>
eff et</w>
eat ?</w>
eas ily.</w>
e ight</w>
e igh
e g
e conom
e au,</w>
désol é.</w>
désol é,</w>
déli ci
dé e.</w>
dé cé
dur ing</w>
du re</w>
du .</w>
dri ving</w>
dr es</w>
don e?</w>
dollar s.</w>
do s</w>
dit es</w>
discu ter</w>
discu ter.</w>
dis po
dis h
dis ent</w>
dir ait</w>
différen ce</w>
différ ent</w>
dictionn aire</w>
devr ais-je</w>
determin ed</w>
dessu s.</w>
deser ve</w>
des cri
den y</w>
den i
dem i-
del ici
de ath.</w>
de ad</w>
dd le</w>
daugh ter</w>
dar k</w>
dans er.</w>
d' étudier</w>
d' é
d' en</w>
d' eau</w>
d' aut
d è
d ge.</w>
d esp
d anced</w>
cé lè
cus tom
cuisin i
cuis ine</w>
cu te.</w>
cr is
cr av
cr as
coû te</w>
coû t</w>
cour age.</w>
coun tries</w>
cou cher</w>
correspon d
correc t.</w>
convain cu
conv inc
contr at</w>
cont ent.</w>
conse illé</w>
consci ence</w>
connaiss ait</w>
conn ais
confi ance.</w>
con stitu
con nu
con clus
comp liqu
commun ic
commenc er.</w>
comfort able.</w>
com par
co t
co chon</w>
cli m
class e.</w>
cl és</w>
cin em
ci v
chur ch</w>
choo se</w>
chem in.</w>
chec k</w>
chau ff
chant er.</w>
chang é</w>
chang ed.</w>
chan son</w>
ch ou
ch al
ch a</w>
cer emon
caus ed</w>
cat s</w>
car tes</w>
car ds</w>
car act
cam pagne.</w>
cal me.</w>
cal cul
cach e</w>
c y
c ook</w>
c ake.</w>
c ab
busin ess</w>
bur st</w>
buil t</w>
br is
bor row</w>
bor ro
bo y.</w>
bl es
bl an
bl ame</w>
bl ack
bicyc le</w>
bibliothè que</w>
bibliothè que.</w>
bi gg
bi en,</w>
bi en
believ ed</w>
be l</w>
be ar</w>
be ach.</w>
bat eau.</w>
bas eb
ban des</w>
b right</w>
b eurre</w>
b ass
b al</w>
av oc
av ance.</w>
av ail
av aient</w>
autom ob
au tum
attend u</w>
atten tion.</w>
ation s,</w>
ation ,</w>
ati ves</w>
ass er</w>
asle ep</w>
as sure</w>
as k
as ,</w>
ar ds</w>
ar bres</w>
après-mi di</w>
appoin tment</w>
appel er</w>
ap er
ap .</w>
any thing?</w>
ant es.</w>
ant e-
anim aux</w>
an u
an 's</w>
amélior er</w>
amoureu se</w>
am p</w>
am bul
am az
al y.</w>
al s.</w>
al ph
al ité.</w>
ais -
ain si.</w>
ain es.</w>
aim é</w>
ai t-
ai l.</w>
ai es</w>
again ?</w>
ag ue.</w>
ag ressi
ag e,</w>
adv ant
adres se</w>
ad vi
ad verti
ad ress
ack ed.</w>
ach e.</w>
ac un</w>
ac tion</w>
ac ked</w>
absolu tely</w>
absolu ment</w>
abo ve</w>
aban donn
ab le,</w>
a head</w>
a ce</w>
Y u
Y ester
Wi thout</w>
Who 's</w>
W omen</w>
Vou driez-vous</w>
V u</w>
Unfortunat ely,</w>
Tr ouv
T on
T es</w>
Sus an</w>
Span ish</w>
Some times</w>
So le
S or
S o</w>
S eu
S ami.</w>
S ach
S M
R est
Qui conque</w>
Quel s</w>
Qu oi</w>
Pri ces</w>
Pourr ais-tu</w>
P eu</w>
On ly</w>
O f</w>
Ne w
N ever</w>
N ations</w>
Montre z-moi</w>
Mal heureusement,</w>
M is
M il
M an</w>
Li fe</w>
L' entreprise</w>
L' anglais</w>
Je an
J' imagine</w>
J' attends</w>
Itali e.</w>
It aly.</w>
Intern et</w>
Fr anç
Fr ance,</w>
Fr an
F or</w>
F in
Excus ez-moi,</w>
Every thing</w>
Es peranto</w>
Do is-je</w>
Dispo sez-vous</w>
D ur
D evine</w>
Com m
Christ mas</w>
Can 't</w>
C ath
C ar
Bu t
Br ing</w>
Br az
Bost on?</w>
B ar
Av ant</w>
Australi e.</w>
Allem agne</w>
Alle z,</w>
Al lez</w>
A près</w>
A c
-t- elle</w>
! !</w>
’ est</w>
œu f</w>
û t</w>
û mes</w>
î mes</w>
étudi ant</w>
ét é,</w>
ét oi
étoi le</w>
ét er</w>
ét end
ét aire</w>
équi pe.</w>
énor me</w>
élè ves</w>
ég lis
écureu ils</w>
écr it.</w>
écou ter.</w>
éclat a</w>
é ro
é or
é nom
é le
é go
égo ï
é conom
é cole</w>
é car
èv re.</w>
è ne.</w>
â che.</w>
z o
zo o</w>
z ed.</w>
yth ag
your s?</w>
young er</w>
y nam
work ?</w>
wor ry.</w>
wor ri
wonder ful</w>
wom en</w>
with in</w>
with ?</w>
windo ws.</w>
wi th.</w>
wi ce</w>
wh is
wh ale</w>
wel l?</w>
wee ks</w>
wee k</w>
wea ther.</w>
we ight</w>
we ap
we al
war .</w>
w ood</w>
w it
w ise.</w>
w er</w>
w 's</w>
vérit able</w>
vé s.</w>
voul u</w>
vou liez</w>
vou lez.</w>
volon té</w>
vo ilà</w>
vis ions</w>
vir g
ving t</w>
vie w.</w>
vidé o</w>
vide o</w>
vide o.</w>
vi ons</w>
vi en
veu illes</w>
ver rou
ver 's</w>
vendre di</w>
ven ge
ven ez</w>
vach es</w>
vac ation.</w>
v us</w>
v re</w>
v oit</w>
v alis
utilis é</w>
uti le.</w>
usu al.</w>
us e?</w>
ur es.</w>
up set.</w>
up on</w>
up !</w>
univers ity</w>
uni que</w>
understand ing.</w>
un less</w>
umbre ll
u gl
télé phon
tun n
tunn el.</w>
tu re,</w>
tu de</w>
truth ?</w>
trouver as</w>
trouv é.</w>
trouv ent</w>
trouv ait</w>
trou bles</w>
tro isi
troisi ème</w>
tro .</w>
tri ce</w>
tre z</w>
traver ser</w>
tradu ctions</w>
tr ain
tour ist
tour .</w>
tou s.</w>
tou ché</w>
tou che</w>
tot al</w>
tomorro w</w>
tomb ée</w>
to wn</w>
to p.</w>
tis h</w>
ti on,</w>
ti me?</w>
ti g
ti e.</w>
théâ tre</w>
théâ tre.</w>
thous and</w>
thou ght.</w>
they 'll</w>
ther mo
ther ,</w>
them ati
them ?</w>
th s.</w>
th ro
th ic
thic k</w>
th en.</w>
th ,</w>
tex t
terri ble.</w>
ter ms</w>
ter ed</w>
ter ais</w>
ter 's</w>
tent é</w>
tenn is,</w>
tend ance</w>
ten ait</w>
tem per
tem ent,</w>
televis ion</w>
televis ion.</w>
teach ing</w>
te ?</w>
tax es.</w>
tal k
tal ent</w>
t' ve</w>
t' amus
t âche</w>
t wice</w>
t ree</w>
t est</w>
t es?</w>
t ask</w>
t aller</w>
t ait</w>
t ais</w>
sœ ur
sû rement</w>
séri eux</w>
séri e</w>
sé ché</w>
symbo l</w>
swe at
suspe ct.</w>
sur vi
sup port</w>
sun ny</w>
suiv i</w>
sugg ère</w>
sugg est</w>
succ ès.</w>
suc re.</w>
su it.</w>
su i
sty lo</w>
stud ents.</w>
str eng
stop ping</w>
stop ped</w>
ste m</w>
st ood</w>
st ,</w>
spr ing</w>
speak ing</w>
spe cti
spe ctat
sp ell</w>
sp ati
sp ace.</w>
soul ag
sou d
soon er</w>
son n
son ge</w>
son g</w>
somme il.</w>
some one.</w>
som m
solu tion.</w>
soci al</w>
smo king.</w>
smar t</w>
smar t.</w>
sm ile.</w>
sm aller</w>
sli pped</w>
sleep ing</w>
sing s</w>
si x
si r.</w>
si gn
show er</w>
show ed</w>
sho p</w>
shi p.</w>
sh y.</w>
sh el
sex u
seu ls.</w>
serv ic
serv i</w>
ser ver</w>
ser ve</w>
ser t</w>
ser ons</w>
senti r</w>
sensi tive</w>
sembl ait</w>
sem ent.</w>
sem aines.</w>
sel ling</w>
secon d
se as
scientifi ques</w>
sch ol
scar ed</w>
sav ed</w>
satis fai
sant é</w>
sandwi ch.</w>
sal t</w>
sal on</w>
sal aire</w>
sal ad
sai t.</w>
sac rific
sacrific es.</w>
sac .</w>
s- moi</w>
s' y</w>
s' in
s pre
spre ad</w>
s por
s now.</w>
s ite.</w>
s in
s et
s col
s am
s ain
s age.</w>
s Ap
résultat s</w>
résol u</w>
répon se</w>
répon se.</w>
réfléch ir.</w>
réfléch i</w>
ré col
règ les</w>
ru les</w>
ru ined</w>
ru e</w>
ru de</w>
ru b
ro ck
ro bo
ridicu lis
ri t</w>
ri c</w>
retur ned</w>
retour n
respons able.</w>
rencontr ée</w>
rem pl
rem ettre</w>
reg is
ref lec
rec ev
read y.</w>
reach ed</w>
re z-vous</w>
re trai
re qui
re pe
re moved</w>
re mind</w>
re lat
re la
re d?</w>
re al
rar ement</w>
rar ely</w>
rap port.</w>
rap ide</w>
rais ed</w>
racon ter</w>
r ête</w>
r er</w>
r ais</w>
quel qu'
quelqu' un.</w>
qu ée</w>
qu in
qu eu
qu ences</w>
qu e-
que- ni
qu e
pê cher</w>
pê ch
pâ le</w>
punctu al.</w>
publi c
pu re</w>
psy ch
prê ts</w>
prê t.</w>
présid ent</w>
présid ent.</w>
préféré e</w>
préfér erais</w>
pré voy
pré occup
pré cis
propos al.</w>
pron oncer</w>
pron on
promis ed</w>
prom ise.</w>
prom ettre</w>
prom ets</w>
proj et.</w>
produ its</w>
produ it.</w>
produ cti
proch aine.</w>
probl ems</w>
pris on
prin temps</w>
pres sions</w>
pres ent.</w>
prend re.</w>
prend rai</w>
pre gn
pre fer
pr êtes</w>
pr it.</w>
pouv ez-vous</w>
pous er.</w>
pour quoi.</w>
pou le</w>
pot ato
possè de</w>
possib le,</w>
posi tion.</w>
pos te</w>
port ent</w>
por tes</w>
popul aire</w>
pom me</w>
poli tical</w>
po or.</w>
plu ie,</w>
play ers</w>
plan et</w>
pl u</w>
pl at
pl as
pl ann
pi que-ni
phras e.</w>
philosop hi
ph énom
ph en
phen om
phenom en
ph arm
peu ple</w>
peti ts</w>
peti te.</w>
permis sion</w>
permis sion.</w>
perfe ct.</w>
per specti
per mettre</w>
pen sez</w>
pen ses</w>
pen sais.</w>
pen c
pe ine.</w>
pe au</w>
pau se</w>
pau se.</w>
patr on</w>
passe -
pass ée.</w>
pass er.</w>
pas s</w>
parti es.</w>
parti .</w>
part y?</w>
par tout.</w>
par s</w>
par mi</w>
par les</w>
par la</w>
par ked</w>
par k</w>
par e
pain ting</w>
pa le</w>
p éné
p ushed</w>
p ants</w>
p ale.</w>
p ack</w>
p aci
ow es</w>
ouv rit</w>
ouv rez</w>
ouv r
our s.</w>
ou t,</w>
orang es</w>
orang e</w>
opin i
open ing</w>
on z
on t-elles</w>
on s-
on gl
on es.</w>
on d</w>
om m
ol ution</w>
ol e.</w>
ok oham
oi res</w>
offic e?</w>
off er.</w>
occas ion</w>
oc é
oc k</w>
o li
o ke</w>
o d
o cr
o be
o -
nécess aire.</w>
non sense.</w>
no te</w>
no se</w>
neu f</w>
necess ary.</w>
nag e
n' avoir</w>
n' arriver
n' arriv
n one</w>
n on.</w>
n ice.</w>
n er,</w>
n a
mê mes</w>
mét éor
mér it
médi cam
mé tro.</w>
musici an.</w>
mus t've</w>
mul ti
moun tain</w>
mou rir</w>
mor gue.</w>
mor al.</w>
mont agne.</w>
mo vies.</w>
mo r</w>
mirac le.</w>
minu tes,</w>
mic ros
mi ddle</w>
men er</w>
mem ory</w>
me ans</w>
me an
me -
mauv aises</w>
mati ère</w>
mat ins.</w>
mat in
mat h</w>
mark et
mari age.</w>
march é.</w>
mani ère.</w>
mam an</w>
mal ade</w>
mai l</w>
magaz ine.</w>
mag ni
ma themati
m' y</w>
m' as-tu</w>
m' appelle</w>
m ’
m pi
m p</w>
m ouv
m ise</w>
m en.</w>
m ay
m ain.</w>
m ail
m ad
m ,</w>
légu mes</w>
là-b as.</w>
lun ettes</w>
lu re.</w>
lu ck</w>
lors qu'elle</w>
look ing.</w>
loc ked</w>
lo y
lo se.</w>
lo i</w>
lo ge</w>
livr es.</w>
litt le.</w>
lis t.</w>
lic ation</w>
li ght.</w>
li er</w>
li ed</w>
li bat
let 's</w>
less on</w>
les quelles</w>
leg s</w>
leav es</w>
lear ning.</w>
le a
law yer.</w>
laugh ing.</w>
langu es.</w>
lab orat
l'ét age.</w>
l'é pouser.</w>
l'é po
l'hum our</w>
l'av enir</w>
l'au tre.</w>
l'al cool.</w>
l'ai m
l' âge</w>
l' utilis
l' uni
l' opér
l' on</w>
l' inter
l' im
l' histoire.</w>
l' ex
l' entreprise</w>
l' avons</w>
l' appr
l' appel
l' ami
l' allemand.</w>
l' aime</w>
l' accident</w>
l' accident.</w>
l' Australie.</w>
l ying</w>
l yc
l oig
l ent
l ay</w>
l aissez</w>
l ai
l ad
kno w?</w>
kno w,</w>
kni f
knif e.</w>
kitch en</w>
kis s.</w>
kil om
kil led.</w>
keep ing</w>
ke y?</w>
ke y.</w>
ke y
k y</w>
k ag
jur y</w>
jud ge</w>
jou ets.</w>
jou ent</w>
job ?</w>
je al
jeal ous.</w>
japon ais</w>
jamb es.</w>
j ’
j eu</w>
j al
itt ing</w>
it y?</w>
it anni
is- ci.</w>
is te</w>
is cu
ir es</w>
invit é</w>
inv in
intéress ant</w>
intéress ant.</w>
introdu ce</w>
intro duced</w>
interest ing.</w>
inter rom
inter net</w>
int ended</w>
instru ctions</w>
inc lu
in sur
in spir
in fe
import ante</w>
imp act</w>
immediat ely.</w>
imagin ation.</w>
im patient</w>
im pati
im mor
im ent</w>
ill é.</w>
ill ,</w>
identi al</w>
ici ,</w>
i ème</w>
i or</w>
i -je</w>
hô pit
husb and</w>
hur t?</w>
hu man
horri fi
hon or
hon est.</w>
ho t,</w>
hi ver</w>
hi ver.</w>
hi ding</w>
her ,</w>
hel ps</w>
heal th</w>
happ y,</w>
happ in
hang ing</w>
hand s</w>
habitu é</w>
hab ite.</w>
h en
h ave?</w>
h at
h ad
had n't</w>
h !</w>
génér ation</w>
génér alement</w>
guer re.</w>
gu y.</w>
gu lar
gu im
gu ide</w>
gu ests</w>
gro wing</w>
gro w
gre w</w>
grand mother</w>
goo ds</w>
go s
go ing,</w>
gi f
gi e.</w>
gen s.</w>
gau che.</w>
gather ed</w>
gas p
garç on.</w>
gag né</w>
g un
g ri
g out
g onna</w>
g al
g ain
g ?</w>
fun ny.</w>
fuc king</w>
fron ti
from age</w>
from ?</w>
froi d,</w>
friend ly</w>
fre e.</w>
fr ères</w>
fr es
fou le</w>
fou .</w>
fortun e.</w>
fore ign</w>
forc é</w>
forc er</w>
for ê
for me
for ce</w>
foo l</w>
foo ds</w>
fon ction
fonction ne</w>
flow er</w>
fl eur</w>
fin ir</w>
fin anci
fil ms</w>
fi re</w>
fi er</w>
fi dè
feu illes</w>
fer me</w>
fer m
fer iez</w>
fenê tres</w>
feel ings</w>
fe ctionn
fau te</w>
fas ter</w>
famili ar</w>
fall ing</w>
fall en</w>
fai tes-vous</w>
fai sais</w>
fai re,</w>
fai lure.</w>
fai led</w>
fac t</w>
fac t.</w>
fa çon.</w>
f â
f ly</w>
f ab
ez- vous.</w>
ez- vous,</w>
ey es,</w>
existen ce.</w>
exist ?</w>
exis te</w>
exhaust ed.</w>
exerc ice.</w>
excus es</w>
exam .</w>
evid ence</w>
ev olution</w>
eux ième</w>
euro pé
eu ses.</w>
et tez-moi</w>
est e.</w>
espér anto</w>
espe ci
especi ally</w>
esp oir.</w>
es ome.</w>
er y</w>
er ait</w>
er -
envir on</w>
envir on
entr é</w>
enti ss
enti re</w>
entend re.</w>
ent- elles</w>
ent ed.</w>
ent e,</w>
enseign ant</w>
ennu y
ennu is.</w>
enn es.</w>
enn ad</w>
enf in</w>
endro it.</w>
endr a</w>
endor mi</w>
end ur
end ant</w>
en y,</w>
en ir.</w>
en ez-vous</w>
en courag
en ce
empê ché</w>
emprun ter</w>
embrass er</w>
emb er</w>
em p
em erg
em ent
el s.</w>
el on</w>
el le-
el le,</w>
el i
el ess</w>
el ,</w>
ei ther</w>
ei ther.</w>
effor ts,</w>
eat s</w>
e z-moi</w>
e ply</w>
e ine</w>
e at.</w>
e ."</w>
dét ec
désol ée,</w>
déj à
décis ion</w>
décis ion.</w>
déci der</w>
dé ç
dé part.</w>
dé mé
dé goû
dé e</w>
dé cor
dé but</w>
dé ,</w>
du mb
dro w
dro its</w>
dro it.</w>
drin ks</w>
drin k?</w>
dri ver's</w>
dou che</w>
dor t.</w>
dog s</w>
do cu
do ,</w>
dit es-vous</w>
dist ingu
dist ance,</w>
disappoin ted</w>
disappoin ted.</w>
dis gus
dis cours.</w>
dis coun
direc teur.</w>
direc t</w>
dipl ô
di x-
di rige
di re,</w>
di rai</w>
di ed.</w>
di e.</w>
di al
dial ec
di agno
devr aient</w>
deven us</w>
dev ait</w>
dess in
desc end
des ign
decis ion.</w>
deci de</w>
de z-vous</w>
de par
de l</w>
de fin
de eply</w>
de d!</w>
de d
de cl
de bout</w>
de ath
dd en.</w>
dat a</w>
danger ous.</w>
dam ag
d'hu meur</w>
d' où</w>
d' hor
d' essayer</w>
d' enfants.</w>
d' av
d' ar
d' apprendre</w>
d' aider</w>
d' aide.</w>
d' aff
d' ac
d ynam
d us</w>
d s,</w>
d euxième</w>
d ent.</w>
d ance</w>
d ai
d ad
cô té.</w>
cé libat
cuisin er</w>
cu re</w>
cu e
cru el.</w>
cros sed</w>
croi ent</w>
cr y.</w>
cr ush</w>
cr u.</w>
cr ay
cr ain
cr ai
cr af
coû té</w>
coute au.</w>
cour t</w>
coup é</w>
coup er</w>
countr y
coul eur</w>
cou rir</w>
correc tement.</w>
correc te.</w>
cor ps</w>
cop ine.</w>
cop ain</w>
cook ing</w>
cook ing.</w>
contribut eur</w>
contribu tor</w>
contr ari
contr act</w>
constru ction.</w>
constitu ent</w>
conse ils</w>
connais sais</w>
conn aisse</w>
condu it</w>
condu ire.</w>
condi tion</w>
con sum
con serv
con gratul
con fus
con fectionn
compu ter</w>
comprend re.</w>
compr is.</w>
compl ex
compan y.</w>
compagni e.</w>
comp any
commenc er</w>
comm on.</w>
comm ent.</w>
com porte</w>
com por
com ing.</w>
com ic</w>
col le
coffe e</w>
co sts</w>
co in.</w>
clu b.</w>
clo sed</w>
cle ver</w>
clai rement</w>
cit oy
cir cul
cir cu
cir const
ciné ma</w>
cinem a</w>
ci tiz
ci ation</w>
ci ,</w>
chocol at.</w>
cho s
child hood.</w>
chi ens</w>
chev eux.</w>
cher cher</w>
chaussur es.</w>
chaus s
chau de</w>
charg ed</w>
charg e.</w>
char ac
chant eur</w>
chang ing</w>
chang e.</w>
chanc eux.</w>
ch ée</w>
ch icken</w>
ch eat
ch e,</w>
ch ans
chans ons</w>
ch air</w>
cess e.</w>
cens é</w>
cel le-
caus é</w>
cat ed.</w>
cas t
cas e.</w>
carri ère</w>
can ap
canap é.</w>
can 't.</w>
cal led.</w>
c' est.</w>
c s.</w>
c ould've</w>
c oin</w>
c ked</w>
c er</w>
c e,</w>
c ath
c as</w>
bâti ment</w>
bâti ment.</w>
bro wn</w>
bre as
br es.</w>
br ain</w>
boute ille</w>
bou ton</w>
bott le</w>
bor n.</w>
bon h
bo ss</w>
bo at.</w>
blu e</w>
bless é</w>
ble u</w>
bizar re.</w>
bil lets</w>
bientô t.</w>
bicyclet te.</w>
bi ke.</w>
believ es</w>
beli ef</w>
beauti ful.</w>
beau .</w>
be tr
be have</w>
be er</w>
be d
be cu
be coming</w>
be ating</w>
be at</w>
bar becu
bar .</w>
ban k.</w>
bal eine</w>
bag .</w>
b one.</w>
b oire.</w>
b ly</w>
b iscu
b ar</w>
b am
b a
az ak
ay ed</w>
ay ant</w>
aw esome.</w>
aw a</w>
avoc at.</w>
av ions</w>
av anc
aur ai</w>
aujourd'hu i,</w>
au n
au coup</w>
atti tude</w>
attend re.</w>
atten d.</w>
atte int</w>
atte indre</w>
att aqu
ati f.</w>
ath le
at om
at ing.</w>
assu me</w>
as s.</w>
as pir
as h
arti f
arrê t</w>
arriv ée.</w>
arriv é,</w>
arriv ed.</w>
are a.</w>
ard s.</w>
ar ound.</w>
ar me</w>
ar e,</w>
appréci e.</w>
appel é.</w>
app éti
apologi ze</w>
ap ed</w>
ap e</w>
any where.</w>
ant ly</w>
ant al
anniversai re.</w>
ann ées</w>
ann ées.</w>
anim als</w>
angl es.</w>
ang le</w>
ang er</w>
and ra</w>
anc es</w>
an ed</w>
amus ant.</w>
amoureu x.</w>
am ong</w>
altern ative.</w>
all er
alim ents</w>
al o
al co
al ?</w>
ak ed</w>
air s</w>
aimer ait</w>
ai mer</w>
ai me.</w>
ag on
afterno on</w>
afr ai
af faire</w>
advi ce</w>
advant age</w>
ado p
ad ol
ad d</w>
accor ding</w>
ac compli
ac cent.</w>
ac c
ac a
abil ité</w>
ab y
ab sor
ab s
ab ly</w>
ab lis
ab et</w>
a. m.</w>
a-t- on</w>
a éro
a x</w>
You Tu
Y okoham
What sAp
What 're</w>
Wh ile</w>
Wh ere's</w>
W or
W ith</w>
W as</w>
W as
W ar
Vo ilà</w>
Uni on</w>
US B</w>
Tur n</w>
Tr av
Tom orro
To day</w>
Th anks</w>
T ro
T e</w>
T anak
T a</w>
Stat es.</w>
St ay</w>
Spanish .</w>
S mo
S mi
S er
S ent
S elon</w>
S ais-tu</w>
S .</w>
Regar de</w>
R oy
R este</w>
R es
R I
Quel que</w>
Qu elles</w>
Prom ise</w>
Prom ettez-moi</w>
Pres id
Pense z-vous</w>
Pau l</w>
Par lez-vous</w>
Par ler</w>
P ère</w>
P ythag
P r
P asse
P ar</w>
Os ak
N' importe</w>
N u
N ouv
N one</w>
N a
May u
Mar s</w>
M y
M us
M os
M et
M ennad</w>
Lind a</w>
Le quel</w>
Laisse -
L' un</w>
L' enfant</w>
L' eau</w>
L ’
L ast</w>
L aisse</w>
Kyo to.</w>
K en</w>
K ate</w>
K ate.</w>
Jou ons</w>
Je an</w>
Jap onais</w>
J im
J av
J ack
Is ra
In di
I to</w>
How 's</w>
Hi er,</w>
Hel en</w>
H urry</w>
H it
H i,</w>
H ere's</w>
H en
H a</w>
Gu ess</w>
Gr and
Ger many</w>
Ger man</w>
G ir
Fri day</w>
Fe w</w>
F er
F a
Europe an</w>
Esp agne.</w>
Ei ff
D' où</w>
D u
D an's</w>
Con si
Co ws</w>
Chris top
Ch op
Canad a.</w>
Can adi
C re
C ap
Bri tish</w>
Be aucoup</w>
B ré
B ir
B i
Australi a</w>
Australi a.</w>
Aujourd'hu i</w>
Aujourd'hu i,</w>
At tention</w>
Ar rête</w>
Ap par
An ne</w>
An k
Améri que.</w>
Americ ans</w>
Al lez-vous</w>
Ac cor
A tom
A kag
A ide
A i-je</w>
A h</w>
A fri
A -t-il</w>
8 8
6 0
4 0</w>
4 .</w>
20 0
2 :
2 .</w>
19 1
1 50</w>
1 1</w>
1 1
- même</w>
) .</w>
' s.</w>
" Oh,</w>
" May</w>
œu vre</w>
œu f.</w>
œ il.</w>
ô t</w>
ô ne.</w>
ô le.</w>
ï s
ê tres</w>
ê tre.</w>
ê t
ê m
êm ement</w>
éveill é.</w>
év èn
étudi é</w>
étudi ants.</w>
étrang er.</w>
éti tion</w>
éte indre</w>
ét ait.</w>
ét ait-
était- ce</w>
éré e.</w>
éri e</w>
éri cor
éri c
ér o</w>
ér ature</w>
épous é</w>
épous er</w>
ép ing
élec tron
éle vés.</w>
ég al</w>
ég age</w>
écri v
écri re.</w>
échou é.</w>
échec .</w>
é vi
é prou
éprou ve</w>
é pou
é lève</w>
é gar
égar d.</w>
è tre</w>
è tes</w>
è se</w>
è rement.</w>
è re-
è me.</w>
è me,</w>
ç a?</w>
â ge.</w>
â g
États-Un is.</w>
É t
» .</w>
z- nous</w>
z e?</w>
yp ti
your sel
young ,</w>
you !</w>
yester day</w>
yester day,</w>
y ez-vous</w>
wron g?</w>
world -
wor st</w>
wor st.</w>
wor se</w>
wor se,</w>
wor ried</w>
wor n</w>
wor king.</w>
wonder ing</w>
wit n
win ter.</w>
wil d
wh om</w>
wh ich
which ever</w>
week- end</w>
week- end.</w>
week ,</w>
wee -
wedd ing.</w>
weap on.</w>
we igh
we b
we ak</w>
way ?</w>
wash ing</w>
was ting</w>
was ,</w>
war n</w>
war ming</w>
war m</w>
wal ks</w>
wal king</w>
w ol
w o</w>
w le
w ise</w>
w is
w inter
w ent.</w>
w av
w arri
warri or.</w>
w ait.</w>
vé lo
vé cut</w>
vr es</w>
voy ager</w>
voul ut</w>
voul aient</w>
vou s-
vou dri
vol er</w>
vol can
vois ins</w>
voi x</w>
voi e</w>
voi ce</w>
vo l</w>
vo is-tu</w>
vit é</w>
vit al</w>
visi ble</w>
vis ite.</w>
vis -tu</w>
vir us</w>
vir us.</w>
viendr a.</w>
viend ra
vie w</w>
vie ill
vidé o.</w>
vic tor
vic ti
vi ous
vi ez</w>
vi ent.</w>
vi ennent</w>
vi enne</w>
vi de.</w>
veu t-il</w>
veu illez</w>
ver ty.</w>
ver sion</w>
ver se</w>
ver se.</w>
ver s.</w>
venge ance.</w>
ven ues</w>
ven ons</w>
ven iez</w>
ve !</w>
val eur</w>
vac ation</w>
v éri
v illes.</w>
v il
v eux,</w>
v ented</w>
v e?</w>
v ari
v ant
v an
utilis ez</w>
uti le</w>
us tri
us es.</w>
urg ent</w>
ur gen
urgen ce.</w>
un es</w>
um mer</w>
um ?</w>
u mb
umb us</w>
u e,</w>
u ,</w>
té s.</w>
té ,</w>
tw ent
tw el
tu g
tt end
trus ted</w>
tru ck.</w>
tru c.</w>
trouver ez</w>
tromp er</w>
tro l</w>
tri bun
trembl ement</w>
tre at</w>
travaill ons</w>
trav ers.</w>
trav eling</w>
trans lat
train ?</w>
trai té</w>
trai ter</w>
tradu ire</w>
tradu ction</w>
tr é
tr y.</w>
tr un
tr iste.</w>
tr ag
tr ac
tr a</w>
tour ner</w>
too th
tomorro w!</w>
tomb a</w>
tom be</w>
to x
to ward</w>
tin y</w>
tic .</w>
ti tre</w>
ti re</w>
ti ous.</w>
ti onn
ti n</w>
ti f.</w>
ti f
ti es.</w>
ti endra</w>
ti en.</w>
thè se</w>
thir ty.</w>
thir d</w>
thing 's</w>
thin king.</w>
thin k
thes is</w>
ther n</w>
ther ?</w>
ther -
them sel
th é</w>
th rou
throu gh
th ough</w>
th ough
th en?</w>
th ank
th ?</w>
tex te</w>
terri bly</w>
termin er</w>
ter y</w>
ter r
ter m</w>
ter ie</w>
ter ai</w>
ter a</w>
temper ature</w>
temp érature</w>
tem por
tele phone</w>
techno log
te en
te ar</w>
te a?</w>
te a.</w>
te -
tat ou
tas k.</w>
tar te</w>
tap is</w>
tall est</w>
t'amus er.</w>
t' y</w>
t' es-tu</w>
t' aider.</w>
t' aider
t ée.</w>
t or.</w>
t onn
t oit</w>
t ly.</w>
t ent.</w>
t au
tau ght</w>
t ation</w>
t as</w>
t ard
t ant.</w>
t and
tand is</w>
t aill
t 's</w>
sû rs</w>
sû res</w>
sû r.</w>
sé vér
sé quences</w>
syst ème</w>
sympa th
symbo le</w>
sy stem</w>
swimm ing.</w>
swim .</w>
swe ar</w>
suspe ct</w>
suspe c
suspec te</w>
surpris ed.</w>
sur veill
sur r
sur face</w>
suppos és</w>
suppor ted</w>
sup porter</w>
sup pli
suiv ant.</w>
suici dé</w>
suici de</w>
sugg esti
sugar .</w>
sugar ,</w>
sudd en
succe ed.</w>
succ ess</w>
succ ess.</w>
subjec t.</w>
su n.</w>
su ite</w>
su it</w>
su d.</w>
stupi de</w>
stud y.</w>
stu ff.</w>
stu died</w>
stu di
stron ger</w>
stron g.</w>
stre ets</w>
stre et</w>
strang e.</w>
strai ght</w>
stor ies</w>
step ped</w>
ste ad</w>
stay ing</w>
star t.</w>
star .</w>
st ol
st ock</w>
st es</w>
st ep</w>
st ate</w>
squ irre
squ ir
squir rel
spee ch</w>
speak ing,</w>
spe ed
spati al</w>
sp ic
sp ends</w>
sp ending</w>
souhai ter</w>
souff le</w>
souci e</w>
sou tenu</w>
sou p
sou l</w>
sou cier</w>
sorti e</w>
sort ons</w>
sort is</w>
sort i</w>
soon er.</w>
son t-ils</w>
son t-elles</w>
son g.</w>
son ?</w>
somme t.</w>
some where.</w>
some thing,</w>
some body</w>
som bre</w>
solu tion</w>
soli d</w>
soldi ers</w>
soldat s</w>
sol aire</w>
soix ante-
soiré e</w>
sof t</w>
soci ety</w>
soc cer</w>
sm ell</w>
skir t</w>
sk in</w>
sk in
sièc les</w>
six ty</w>
situ ation,</w>
sis ter's</w>
sing le?</w>
sing ing.</w>
sing er</w>
sing er.</w>
silenci eux</w>
signific ation</w>
si ze</w>
si us.</w>
si on,</w>
si ght.</w>
si enne.</w>
show er.</w>
shor t.</w>
shop ping.</w>
shop .</w>
sho es</w>
shel f.</w>
she 'd</w>
sh ut</w>
sh oul
sh e?</w>
sh am
sh ak
servi ettes.</w>
serv ice.</w>
serious ly</w>
serious ly.</w>
seri ez</w>
ser ved</w>
sent ait</w>
sen s
sembl ent</w>
sem aines</w>
sem ai
semai ne,</w>
self ?</w>
self -
sel fish.</w>
secon de</w>
se x</w>
se l</w>
se cur
se cours</w>
se a</w>
scienti sts</w>
schoo l?</w>
schedu le.</w>
sc ène</w>
sav ing</w>
sau ver</w>
sau ter</w>
satis fait</w>
sal e.</w>
sal ary</w>
sai ent</w>
sach es</w>
sach e</w>
sach e,</w>
s' occupe</w>
s' ils</w>
s' arrêter</w>
s ’
s u</w>
s tri
s prin
s port</w>
s pace</w>
s our.</w>
s l
s cis
s avez-vous</w>
s ave</w>
s ap
s an.</w>
s age</w>
s ag
rê v
réveill é</w>
réus si
résid enti
répon du</w>
répon ds</w>
rép étition</w>
régu li
récol te</w>
ré sist
ré pu
ré mon
ré gl
ré fu
ré es</w>
ré e</w>
ré cl
récl am
ré c
ré alité</w>
run ning.</w>
rum eur</w>
ru p
ru mor</w>
ru le</w>
ru es</w>
ru de.</w>
room ,</w>
ro y
ro wn</w>
ro se.</w>
ro pe</w>
ro of</w>
ro le</w>
ro be.</w>
ris que</w>
ris k</w>
righ ts.</w>
ride au</w>
rich es.</w>
rich e,</w>
rich ,</w>
ri ver</w>
ri ons-nous</w>
ri gol
ri er</w>
ri er.</w>
rhu me.</w>
reus e.</w>
retur n</w>
retour .</w>
ret ar
resul ts</w>
ressour ces</w>
responsib le</w>
responsib le.</w>
responsib il
res ist
res -tu</w>
requ ires</w>
repe at</w>
rentr é</w>
rend ez-vous.</w>
rencontr és</w>
ren voy
ren ce</w>
remè de</w>
rempl i</w>
rem ise</w>
rem et
rem ent,</w>
rem ained</w>
religi on.</w>
rela x
regar der.</w>
regar de.</w>
regar d</w>
refus é</w>
reconnaiss ante</w>
recomm end</w>
rec t</w>
reas ons</w>
reas ons.</w>
reali zed</w>
read s</w>
re ç
re ward
re ver
re ques
reques t.</w>
re prendre</w>
re p
re monter</w>
re jet
re gular
re faire</w>
re faire.</w>
re command
re comman
re !</w>
rappel l
rapid ement</w>
rap port</w>
rang .</w>
ram ass
rai sons.</w>
rab b
r ul
r ough</w>
r ite</w>
r ise</w>
r in
r est</w>
r are</w>
r ank</w>
r ains</w>
r age</w>
quit te</w>
quin ze</w>
qui conque</w>
queu e.</w>
questi onn
questi on?</w>
ques ,</w>
quat re-
qu' est</w>
qu' elle.</w>
qu' avant.</w>
qu as
quas iment</w>
qu arti
quarti er</w>
qu anti
qu ali
péri o
pério de</w>
péri l</w>
péné trer</w>
pé tr
puis siez</w>
publi é</w>
pu ll
préf è
préci pit
préci eux</w>
pré vu</w>
pré visions</w>
pré sente</w>
pré hen
propr es.</w>
proposi tion</w>
propos ed</w>
propo s.</w>
promen er</w>
promen ade</w>
prom esse.</w>
projec t</w>
progr ess
progr am
profon de</w>
professi onn
professionn el.</w>
professi on
prof it</w>
pro ve</w>
pro jet
priv é.</w>
prin temps,</w>
prin cesse.</w>
pri x.</w>
pri ved</w>
pret ti
pres sion</w>
pres er
prepar ed.</w>
prepar e</w>
prend ra</w>
premi ers</w>
premi er.</w>
pre vented</w>
pre ci
preci ous</w>
prati quement</w>
pr of</w>
pr ice.</w>
pr ennent</w>
pr acti
pow er.</w>
pouv aient</w>
pous sé</w>
pous se</w>
pour vu</w>
pour riez</w>
pou red</w>
pou p
potato es</w>
post p
postp one</w>
post card.</w>
post ale.</w>
possibil ity</w>
port es.</w>
por terai</w>
popul ar
pon i
pon du</w>
pon d.</w>
pom me.</w>
pollu tion</w>
policem an</w>
poli tique.</w>
poli tici
pol ite.</w>
pol it
pol i</w>
pois son.</w>
poin ts</w>
poi gnée</w>
poi ds.</w>
pock ets</w>
po ème</w>
po wer
po verty.</w>
po stu
po or
po ems.</w>
po e
po c
poc ket.</w>
pleu vr
pleu voir.</w>
pleu t.</w>
pleu re</w>
pleas ure</w>
pleas ed</w>
pleas ant</w>
plann ing</w>
plan ète</w>
plan ète.</w>
plan e</w>
plai sir</w>
plac é</w>
pl us,</w>
pl ait.</w>
pl ain</w>
pl af
piè ces</w>
pizz a</w>
pic tures</w>
pic tures.</w>
pic ni
picni c</w>
pic ked</w>
pi ec
pi e.</w>
philosophi e</w>
philosop h
phenomen on.</w>
pharm ac
ph one?</w>
peu t-il</w>
peu .</w>
petit- déjeuner.</w>
peti tion</w>
persu ader</w>
persu ade</w>
perfe ct
per sévér
per sever
per mit</w>
per man
per haps</w>
pens é.</w>
pens es.</w>
pens ent</w>
pens ait</w>
pend ante.</w>
penc il
pen se
pe int</w>
pe anu
pay s,</w>
pauv ret
patr on.</w>
pass word.</w>
pass age</w>
pass a</w>
particu lièrement</w>
parti es</w>
parti e.</w>
parl é.</w>
par liez</w>
par lez.</w>
par fait.</w>
par ess
par e</w>
pap er.</w>
pain t
pa tri
p én
p èse</w>
p uni
p tion.</w>
p ne
pne u</w>
p ill
p eux.</w>
p antal
pantal on.</w>
p al
p ag
ouv rir.</w>
ouv re</w>
out side</w>
out es.</w>
ous ?</w>
our ,</w>
oun ds</w>
oul e.</w>
oul .</w>
oubli é.</w>
oubli er</w>
ou ill
ou i</w>
ou i.</w>
ot tes</w>
organ i
ordin aire.</w>
orang e.</w>
or y.</w>
or m
or ité</w>
opportun ity.</w>
op tions</w>
op pos
oo g
ong s</w>
on t.</w>
on s?</w>
on er</w>
on d.</w>
on !</w>
om mag
om i</w>
om b</w>
ologi ques</w>
ol é</w>
ol l
ois eaux</w>
oi re,</w>
of ten.</w>
of ?</w>
oc cur
oblig ations.</w>
objec tive.</w>
objec tif</w>
obj ets</w>
obj et</w>
ob s
o ts</w>
o ted</w>
o te.</w>
o f.</w>
o ce
o !</w>
n’ aurais</w>
nô tre.</w>
numb er?</w>
nu e.</w>
nu ages</w>
noy é</w>
nouv eaux</w>
nor mal.</w>
nor mal
no w,</w>
no tic
no tes</w>
no t?</w>
no r</w>
no ise</w>
no body</w>
ni r</w>
ni er</w>
netto y
ner veux.</w>
ner veu
ner gie</w>
neig e</w>
nee ded.</w>
necess ar
necessar ily</w>
near ly</w>
near est</w>
ne w.</w>
ne d,</w>
natu rel.</w>
natu re.</w>
naiss ance</w>
n' étaient</w>
n' s</w>
n' apprécie</w>
n' aimait</w>
n ’ai</w>
n ée.</w>
n ous,</w>
n it</w>
n ing,</w>
n ic
n av
n ant</w>
n ak
n aie</w>
n ai
n age.</w>
n a</w>
météor ologiques</w>
mér ite</w>
mé tho
musici en.</w>
music al</w>
museu m</w>
multi l
multil ingu
mour ut</w>
mou th</w>
mor te</w>
mondi al
mondial e,</w>
mon tre.</w>
mon ths</w>
mon ths.</w>
mon naie</w>
moi re.</w>
moder n</w>
mo ther's</w>
mo st?</w>
mo squ
mo quer</w>
mo on</w>
mo is-ci.</w>
mo ins.</w>
mistak es</w>
mistak es.</w>
mist ook</w>
mist ake</w>
mis éricor
mis understanding.</w>
minu tes?</w>
minim um</w>
milli ers</w>
mil it
mignonn e.</w>
mi f
mif ère.</w>
mi eux,</w>
mi en</w>
mi el</w>
mi d
mess age.</w>
mer c
ment al</w>
men song
meill eur.</w>
medic ine</w>
me tho
me d
med al.</w>
me chan
maî tr
mauv ais.</w>
mathémati ques.</w>
mat éri
mat ure</w>
mat in,</w>
mat eri
marr on.</w>
mari és</w>
mari age</w>
mar ry.</w>
mar i.</w>
mant eau.</w>
manqu é</w>
manqu ait</w>
mani f
manif est
mang ent</w>
manag ed</w>
mam mifère.</w>
mam mal.</w>
maladi es</w>
maladi e</w>
maj or</w>
magni fi
magaz ines</w>
mach ine</w>
mach in
ma ths</w>
ma s.</w>
m'appel l
m'ai mes</w>
m' était</w>
m' excus
m'excus er.</w>
m' empêcher</w>
m' avez-vous</w>
m' attends</w>
m' arrêter</w>
m' aider</w>
m è
m ood</w>
m eur
m ed</w>
m ar</w>
m and
m ais.</w>
m ad</w>
l’ ét
là- dessus.</w>
lui- même</w>
lu i,</w>
lu .</w>
lov ely</w>
lors qu'on</w>
lors qu'ils</w>
look s.</w>
longu es</w>
long s</w>
lo we
lo sing</w>
lo ses</w>
lo s
lo bal</w>
lo ad
liv e?</w>
lit res</w>
lit ers</w>
lis te</w>
lis te.</w>
ligh t?</w>
lig ne</w>
life time.</w>
lic ense</w>
libr ary</w>
liber té</w>
li qui
li ons</w>
li king</w>
li en</w>
li bre.</w>
lev ée</w>
let ting</w>
let ters.</w>
let ter?</w>
lef t?</w>
le ad
laugh ing</w>
laugh ed</w>
laugh ed.</w>
lat e?</w>
larg er</w>
larg e.</w>
lap top</w>
langu ages.</w>
lang age</w>
l'é glis
l'é conom
l'économ ie</w>
l'univers ité.</w>
l'uni vers</w>
l'inst ant</w>
l'hôpit al.</w>
l'hô tel.</w>
l'exam en</w>
l'exam en.</w>
l'es prit</w>
l'es prit.</w>
l'em porter</w>
l'ar me</w>
l'appr entiss
l'ai r.</w>
l'ai der.</w>
l' s</w>
l' or
l' océ
l' occasion</w>
l' impression</w>
l' expliqu
l' espagno
l' esp
l' enf
l' aéro
l'aéro port.</w>
l' avez</w>
l' autor
l' aut
l' as</w>
l' as-tu</w>
l' arrêt</w>
l' après-midi</w>
l' ann
l' am
l' allem
l' aise.</w>
l' ac
l une</w>
l oo
l ines</w>
l ess.</w>
l es.</w>
l es-
l es,</w>
l d</w>
l anc
l an
l ake.</w>
l aid</w>
l ack</w>
kno wle
kno ck</w>
kitch en.</w>
kind ness.</w>
kid s.</w>
key s?</w>
ke ys</w>
k o.</w>
k er.</w>
k en.</w>
jus qu'au</w>
jud g
ju re</w>
ju pe</w>
ju m
ju ge</w>
jour s,</w>
jou eurs</w>
jo indre</w>
jo gg
jogg ing.</w>
jeu nes.</w>
jet a</w>
je ans</w>
jam be.</w>
jal oux.</w>
j' allais</w>
j' aie</w>
j oi
j ell
j au
j ar
jar di
jardi n</w>
j ail.</w>
it ée.</w>
it es</w>
it ali
it age</w>
ist s</w>
is ée.</w>
is é</w>
is ter</w>
ir ur
invol ved</w>
invit ées.</w>
invit ed.</w>
invin cible.</w>
inv ent
intér esse</w>
internation ale.</w>
interest ed?</w>
interest ed.</w>
inter dit</w>
intellig ents.</w>
instru cti
institu teur.</w>
inst ant</w>
inst ant.</w>
ins an
ini ti
ingéni eurs</w>
ing ue</w>
ing ing</w>
inform ation.</w>
inform ati
influ enc
infe ct
ine ers</w>
indi c
inc en
in timi
in tention</w>
in tend</w>
in side</w>
in s,</w>
in f
in es.</w>
in depend
in corri
incorri gi
in cid
in calcul
incalcul able</w>
in -
im prim
im possible.</w>
im patience.</w>
im age</w>
ill us
ill s.</w>
ill ness.</w>
ill es,</w>
il li
il leg
il ed</w>
il e?</w>
ignor ed</w>
ignor ance.</w>
idi ot</w>
i x</w>
i rez</w>
i ez-vous</w>
héro ï
hypo thèse</w>
hypo thesis</w>
hu mor
hu mains</w>
horri ble</w>
hor se.</w>
hop ing</w>
honn eur</w>
hon te.</w>
home work.</w>
hom o
hom mes.</w>
holi day.</w>
ho t.</w>
ho le</w>
hist ory</w>
hist oires</w>
high ly</w>
high er</w>
hi .</w>
help ,</w>
hear .</w>
health y.</w>
he ?</w>
has ard</w>
has ard.</w>
hard er.</w>
har v
happen ,</w>
hand s?</w>
hair ?</w>
habitu de,</w>
hab ill
h ér
h our</w>
h ates</w>
h at.</w>
h ang</w>
h ad.</w>
géni e</w>
gâte au.</w>
gu ér
gu ère</w>
gu ys.</w>
gu eu
gu essed</w>
gu ess.</w>
gu ard</w>
grou p</w>
gros si
grand i</w>
gr âce</w>
gr ound</w>
gr ound.</w>
gr adu
got ta</w>
gol d
go t.</w>
go ing?</w>
go d</w>
gi ving</w>
gi ant</w>
gh ting</w>
gentill esse.</w>
genti lle</w>
genti l</w>
gener ation</w>
gard é</w>
gar der
gam es</w>
gal ax
gag ner.</w>
g ê
g é.</w>
g old</w>
g ne</w>
g es</w>
g er.</w>
g el
futu r</w>
fur ther</w>
fur nitu
ful ly</w>
ful !</w>
fu mer,</w>
fu me</w>
fru its</w>
fru its.</w>
froi de</w>
frapp é</w>
frapp a</w>
four nit</w>
for ts</w>
for te</w>
for me</w>
for me.</w>
for gotten</w>
for get
for ever.</w>
for ec
for ces</w>
for bi
forbi dden.</w>
foot ball</w>
fon d</w>
fon d
fol le.</w>
fo s
flu ent</w>
fl av
fl at</w>
fish ing</w>
fish ing.</w>
fir st,</w>
fin .</w>
fil le,</w>
fic ation.</w>
fi ère</w>
fi ve.</w>
fi ghting</w>
fi el
fi able.</w>
fer mé</w>
fer mé
fer ions</w>
fenê tres.</w>
feel s</w>
fe ed</w>
favor able.</w>
fau x.</w>
fau tes,</w>
fass e.</w>
fall ut</w>
fall ait</w>
fai ts</w>
fai th</w>
fai th
fai m</w>
fai ble</w>
fac ture</w>
fac t,</w>
fab ri
fa ther?</w>
f ûmes</w>
f ous</w>
f oun
f lat
f aus
f ar.</w>
f all</w>
f al
f ?</w>
extr êmement</w>
expéri ence.</w>
expl ained</w>
exp lication</w>
exis t.</w>
exig é</w>
excel l
exc ès</w>
exam en.</w>
exac t</w>
ex trem
ex pressions</w>
ex press
ex plan
ex cl
ex change</w>
ex cep
every where.</w>
every one's</w>
ever ,</w>
ev il</w>
eur s,</w>
eu sement.</w>
et é.</w>
et y.</w>
esti mat
est y</w>
est ablis
establis hed</w>
essay er.</w>
essay a</w>
ess ai
esp èce</w>
es sez</w>
es sez-vous</w>
es prit</w>
es pace</w>
es cent</w>
eri ez-vous</w>
eri a.</w>
er y.</w>
er t</w>
er ont</w>
er ons</w>
er ie.</w>
er ever</w>
er !</w>
equ al</w>
enver rai</w>
env a
entu ally</w>
entre tenir</w>
entre prise.</w>
entr ée.</w>
entr er</w>
entr er.</w>
entr al</w>
entr a</w>
ent ur
ent s?</w>
ent ly.</w>
ent ered</w>
ent -il</w>
enseign é</w>
ense igner</w>
ennu is</w>
enjo ys</w>
end u
end ommag
end ?</w>
enc es,</w>
enc e?</w>
en visage</w>
en vis
en vers</w>
en s,</w>
en regis
en rag
en ge.</w>
en ez</w>
en ed</w>
en dit</w>
emprun te</w>
emp ty</w>
embarrass ed</w>
embarr asse
embarrasse d.</w>
em ents.</w>
elle- même</w>
ell ing</w>
ell er</w>
ell ement,</w>
elec t</w>
el ?</w>
eigh teen.</w>
eg g</w>
effor t</w>
effec tive</w>
eff ic
econom y</w>
ec tion</w>
ec au
ecau se</w>
eas ier</w>
eas e</w>
earthqu ake</w>
e- le</w>
e z,</w>
e ons</w>
e di
e "</w>
d’ un</w>
détru it.</w>
détermin ation.</w>
dét end
désor mais.</w>
dés as
dérang e</w>
dépê ché</w>
délici eux.</w>
déclar é</w>
déb arr
dé çu</w>
dé velop
dé passer</w>
dé part</w>
dé nu
dé gr
dé gag
dé fil
dé es</w>
dé con
décon ne</w>
dé but
dé bu
débu t,</w>
dur ant</w>
du re.</w>
du e</w>
drun k.</w>
dro ve</w>
dro pped</w>
dro p</w>
dro ite</w>
drin king</w>
drin king.</w>
dri ving.</w>
dri ed</w>
dre am</w>
dr es.</w>
dr a
dra w</w>
doul eur</w>
doub ts.</w>
doub le-
dou é</w>
dou c
dor ment</w>
door ?</w>
donne z-
donn ées</w>
donn ée</w>
donn ent</w>
don .</w>
don 't.</w>
dom m
dom aine</w>
dog s.</w>
doct or
divor ce.</w>
dist ance.</w>
dispos ent</w>
dispos ais</w>
discus sed</w>
discu té</w>
discover ed</w>
dis tant</w>
dis posi
dis poni
dis e</w>
dis appear
direc tion.</w>
dir ent</w>
diplom ati
din ner?</w>
diman che</w>
dig ne</w>
dig it
différen ces</w>
difficul tés</w>
difficul té</w>
difficul ty</w>
dictionn aire.</w>
di ra</w>
di r.</w>
di ez</w>
di eu</w>
di d.</w>
di ct</w>
di able</w>
di ,</w>
devoi rs</w>
devoi rs.</w>
devin er</w>
deven ue</w>
dev ais</w>
determin ation.</w>
det ec
destin ation</w>
dest in.</w>
dessin ées</w>
dess ert.</w>
desp ise</w>
deser ves</w>
des k.</w>
des ire</w>
derni ères</w>
der ing</w>
deni ed</w>
demand ed</w>
delici ous.</w>
defin ite</w>
decis ion</w>
de prived</w>
de f
de cor
de b
davant age.</w>
daugh ters.</w>
daugh ter?</w>
dat ing</w>
danger eux.</w>
dang er</w>
d'accor d.</w>
d' ét
d' intérêt</w>
d' information</w>
d' ici</w>
d' habitude.</w>
d' expliquer</w>
d' eux</w>
d' entendre</w>
d' elle.</w>
d' attendre</w>
d' arrêter</w>
d' ap
d' amour</w>
d' aide</w>
d' accepter</w>
d outes.</w>
d om</w>
d oig
d ge</w>
d ents.</w>
d ent</w>
célè bre</w>
célibat aire</w>
cé rémon
curi os
cu re.</w>
cré é</w>
cro is-tu</w>
cri ti
cri t</w>
cri p
cre ated</w>
cre ate</w>
crav ate.</w>
cras hed</w>
cr u</w>
cr oire.</w>
cr ise</w>
coû ts</w>
courag eux.</w>
cour se</w>
cour se.</w>
cour se
cour ant</w>
cour amment</w>
coup a</w>
country side.</w>
coun t</w>
cou .</w>
correc tement,</w>
cor ps.</w>
cor n
cop ine</w>
convinc ed.</w>
contr aire</w>
continu é</w>
continu er</w>
cont in
cont ente.</w>
cont act</w>
cont ac
constru it</w>
conse ille</w>
conse illa</w>
consci ent</w>
connaiss ent</w>
connaiss ance</w>
conn ait</w>
conf éren
condi tion.</w>
conclus ions</w>
concer ne,</w>
concer n</w>
con trol</w>
con tente</w>
con séquences</w>
con spir
con somm
con fir
con .</w>
compr ennent</w>
compor tement</w>
compl et.</w>
company 's</w>
compagni e</w>
comp ét
comp ter.</w>
communic ation</w>
commer ci
comment aire.</w>
commen ç
comm un.</w>
comm itted</w>
comm and</w>
comfort able</w>
com mon</w>
com e?</w>
com bus
col or</w>
col lis
co ward.</w>
co ver</w>
co sts.</w>
co at.</w>
co at
coat ,</w>
cloth es</w>
clo sel
clo se.</w>
cli mat
cli ent.</w>
clear ly</w>
cle aned</w>
cle an.</w>
cl av
cl ari
cl air</w>
ck s.</w>
ck ed.</w>
ck !</w>
citoy ens</w>
citiz ens</w>
circu m
chos en</w>
chocol ate.</w>
cho c.</w>
children ?</w>
chi ev
chev al.</w>
chem ent,</w>
chec k.</w>
che er</w>
chau d,</w>
charg e
chap eau.</w>
chant euse</w>
chant er</w>
chang es.</w>
chang er.</w>
chang ements</w>
chanc euse</w>
chanc e,</w>
cham p</w>
cham bres</w>
chall enge.</w>
chall eng
ch âte
ch ons</w>
ch irur
ch aise</w>
ch acun</w>
certain ement</w>
cert aines</w>
cep tion</w>
celui- ci.</w>
cel les</w>
cel a,</w>
ce ive</w>
ce il
cau ses</w>
cass er</w>
caract ère.</w>
car e.</w>
capit aine</w>
cap tain</w>
cap ac
cand y</w>
can cer
cam era.</w>
call ing</w>
caf et
cad eau.</w>
c ks</w>
c is</w>
c eux-
c entur
c entre</w>
c ale</w>
c aca
caca hu
but ton</w>
bus y,</w>
bur ned</w>
buil ding</w>
bu g.</w>
bru it</w>
brother s.</w>
bro ken.</w>
break fast</w>
bre ad</w>
br un
br onz
br itanni
br as.</w>
br an
br ac
boy friend</w>
boy friend
boute ille.</w>
borro wed</w>
bor n?</w>
bor ed.</w>
bor del</w>
bo ard
bless ée.</w>
bless er</w>
blanc .</w>
bl ing.</w>
bl ind</w>
bl ind
bl ank
birth day.</w>
bir d</w>
bigg er</w>
bi olog
bi ke</w>
bet ter?</w>
bet ter,</w>
ben e
bel ongs</w>
bel ong</w>
bel le.</w>
begin ning</w>
begin ning.</w>
beau té</w>
be t.</w>
be hav
be er?</w>
be ef.</w>
be comes</w>
be at
batt le.</w>
bat tu
bat tre</w>
bat tre.</w>
bat eau</w>
baseb all</w>
bas e-
bar ely</w>
ban que.</w>
bag s</w>
ba g</w>
b û
b éné
b ound</w>
b oo
b oivent</w>
b low
b ite</w>
b ish
b ill</w>
b es.</w>
b arri
b arr
b and</w>
ay !</w>
av ou
av is</w>
av eu
av ance</w>
av ait-il</w>
autum n</w>
autom ne</w>
aut ant.</w>
aur a</w>
au- dessus</w>
au té</w>
au tre.</w>
au rez</w>
au près</w>
attrap er</w>
ation s?</w>
at tirer</w>
at temp
at e?</w>
at ?</w>
assur er</w>
asse ,</w>
ass is</w>
ass au
asle ep.</w>
as t.</w>
as sum
as si
as se</w>
as pec
artic les</w>
artic le.</w>
arrê té.</w>
arrê te</w>
arrog ance</w>
arro se</w>
arriv ée</w>
arr y</w>
arr ested</w>
are a</w>
ar y,</w>
ar t</w>
ar t.</w>
ar e?</w>
ar e!</w>
ar b
ar ai
ar ab
appro ve</w>
appr end</w>
appar tement</w>
app y</w>
app lic
aper ç
ap proch
ap ple.</w>
any thing,</w>
any mor
anxi ous</w>
ant a,</w>
ant ?</w>
ans ?</w>
annu l
anim aux.</w>
anim al.</w>
angl ais,</w>
ang .</w>
anc e?</w>
an us</w>
amélior é.</w>
amus ante.</w>
ami es</w>
ami 's</w>
ambi tion</w>
am éric
am ment.</w>
am is</w>
am ical</w>
am ic
am en
am ais</w>
alph abet</w>
aller gi
all ées</w>
all umer</w>
all ons-nous</w>
all er,</w>
all ?</w>
alis er</w>
ali ve.</w>
alco hol
al lowe
al lez-vous</w>
al ity</w>
al ity.</w>
al ie</w>
al ed</w>
ak e?</w>
aiss er</w>
ais ons</w>
ais es.</w>
air port.</w>
ain ,</w>
aimer ions</w>
aim é.</w>
aim ed</w>
ai r.</w>
ai ls</w>
ai de,</w>
ai ,</w>
aggr essive</w>
again ,</w>
ag ère.</w>
ag s</w>
ag ir</w>
afrai d.</w>
aff ord</w>
adv anced</w>
adress e.</w>
addr essed</w>
addi cted</w>
ad mit</w>
ad ded</w>
actu ellement</w>
acti ve</w>
ach ète</w>
ach è
accep té</w>
accep table.</w>
ac é</w>
ac ré</w>
ac er</w>
able ?</w>
ab un
ab on
ab oie</w>
ab e
a to</w>
a que.</w>
a o
a -
Yor k</w>
Yester day</w>
Wor ld</w>
What ever</w>
Wh ite</w>
W rite</w>
W ar</w>
Voy ez-vous</w>
Voy ager</w>
Vo is-tu</w>
V iv
V en
Uni vers
Uni es.</w>
Tr adu
Tou te</w>
Tomorro w</w>
Th e
T' es</w>
T wo</w>
Spe aking</w>
Spe ak</w>
Some thing</w>
Sole il</w>
So is</w>
So ,</w>
Smo king</w>
Seu l</w>
Sal u
S pain</w>
S pain.</w>
S on
S oit</w>
S it</w>
S ami's</w>
Re petition</w>
Re gard
Re all
Re ad</w>
R em
R appel
Pythag or
Presid ent</w>
Pourr ais-je</w>
Ple as
Pl us</w>
Per met
Per haps</w>
Par lez</w>
Par donnez-
Par ce</w>
P répar
P re
P or
P ol
P h
P endant</w>
P al
On ce</w>
OK .</w>
O h!</w>
Nu l</w>
Noë l.</w>
New -
N' hé
N' essaie</w>
N' ayez</w>
N' as-tu</w>
N on</w>
Mon si
Mon ey</w>
Mo st</w>
Mis s</w>
Mayu ko</w>
Mar y
Mar i
M r.</w>
M en</w>
M ang
M ac
Lon dres</w>
Lind a.</w>
Lay la
Langu age</w>
Laisse z</w>
L' instituteur</w>
L' espéranto</w>
L' ennemi</w>
L' av
L' argent</w>
L' accident</w>
L' Alg
L'Alg érie</w>
L à</w>
L is</w>
L ef
K o
K ing</w>
K ?</w>
Jus te</w>
Joh n.</w>
Jean ne</w>
Japan ?</w>
Jack son</w>
J' habite</w>
J' essay
J' attend
J' arrive</w>
J' apprend
J' ap
J' allais</w>
J o
J amais</w>
Intern ational</w>
Hel p</w>
H onn
H av
H appy</w>
Ger man
G oog
G ood</w>
G iv
G ard
Fran chement,</w>
Fr ank
For get</w>
Fer me</w>
Fa ther</w>
F umer</w>
F l
F ear</w>
Europe ,</w>
Est -
Est- elle</w>
Es say
Englis h?</w>
Eng land
Eiff el</w>
Ei ther</w>
E m
Dé sol
Dé pêch
Dé barr
Dur ing</w>
Di able</w>
D égage</w>
D is</w>
D eux</w>
D .</w>
Cor rect</w>
Consi der</w>
Conn aissez-vous</w>
Conn ais-tu</w>
Comm un
Col umbus</w>
Christ mas.</w>
Chris ti
Chin a.</w>
Char les</w>
Ch ine.</w>
Cert aines</w>
Cel sius.</w>
C lose</w>
C le
C her
C he
C eux</w>
C essez</w>
C entral</w>
C .</w>
C '
Bré s
Bo ys</w>
Bir ds</w>
B ut</w>
B rown</w>
B on</w>
B on
B ecause</w>
B ats</w>
Austr alie</w>
Auc une</w>
Atom ic</w>
Ap porte
Any one</w>
Angle terre</w>
Améric ains</w>
Americ a.</w>
All ons</w>
Alg eria</w>
Al or
Aim ez-vous</w>
Accor ding</w>
A ttend
A pr
A mus
A m
A g
: 0
5 .</w>
4 000</w>
3 00</w>
2: 30.</w>
2 8</w>
2 .
1 7
1 5</w>
1 00</w>
-t- on</w>
- là.</w>
- le-
, 000</w>
" Yes,</w>
" Why</w>
" The</w>
" I'm</w>
" Don't</w>
" Do</w>
" Are</w>
" ?</w>
’ ve</w>
​ ​
œu f
ô tre.</w>
ô ti
ôti .</w>
ô ta</w>
ï e</w>
ï de</w>
î n
în mes</w>
í o.</w>
ë l</w>
êt eté.</w>
ê ti
ê pes</w>
ê le</w>
éveill é</w>
év an
évan ou
étudi ent</w>
étudi ante</w>
étudi ante.</w>
étudi ant.</w>
étudi a</w>
étu des.</w>
étu de</w>
étu de.</w>
étrang ers.</w>
étrang er</w>
ét éri
ét y
ét onné</w>
ét ern
ét end</w>
ét ari
ét ant</w>
ét an
ét ais-tu</w>
ét age</w>
ét abl
établ i</w>
éri r</w>
éri eur</w>
ér é</w>
ér er</w>
ér ar
érar chi
épuis é.</w>
énor mé
énormé ment</w>
éner gie</w>
éner gie.</w>
élic it
élicit ations</w>
électron ique.</w>
élec tric
égoï ste.</w>
égoï st
églis e</w>
ég ale</w>
ég al.</w>
ég al
écureu il</w>
écu ter</w>
écras é</w>
écras er</w>
écr is</w>
écou tes-tu</w>
échou er
échec s.</w>
échapp é</w>
éch ec</w>
éch anti
é si
é reuse.</w>
é pic
épic é</w>
é ment</w>
é lé
élé ph
é lu
é loig
é levé</w>
é duc
é cole.</w>
é a</w>
èr erais</w>
èn ent</w>
è vement</w>
è que</w>
è mes.</w>
è de.</w>
ç ons.</w>
â me</w>
â me.</w>
â gé</w>
Ét ais-tu</w>
É ti
Éti ez-vous</w>
É tant</w>
É loig
É g
É cr
É coute
É cou
É co
Éco s
zar t,</w>
zar rement,</w>
z- vous,</w>
z- les-
z- le</w>
z éro</w>
z ones</w>
z one</w>
z one.</w>
z ing</w>
z i
z er
z en</w>
z aine</w>
ypti an</w>
yoursel ves.</w>
your s,</w>
you ?"</w>
year ,</w>
y- five</w>
y u
y mpi
y fish.</w>
y ez</w>
y et,</w>
y es.</w>
y ens.</w>
y el
yel low</w>
y d
yd ne
ydne y</w>
y azak
yazak i</w>
y ach
yach ts</w>
y ."</w>
xim ité</w>
x y
x for
x emb
xemb our
xembour g.</w>
writ er.</w>
wr ite.</w>
wr in
wrin k
wr apped</w>
worri ed.</w>
worl d,</w>
work s.</w>
work ers</w>
work ed.</w>
wor se.</w>
wor d,</w>
wor d
woo ds.</w>
wom en?</w>
wom an,</w>
wis dom
winter ,</w>
windo ws</w>
windo w?</w>
windo w,</w>
win ning.</w>
win ?</w>
wi do
wi der</w>
wi de</w>
whis ky</w>
whe el.</w>
wh ite.</w>
wh ile?</w>
wh i
wh en
when ever</w>
wel l
wel d</w>
wel come</w>
wel come.</w>
wel com
weir d,</w>
weigh s</w>
wee- wee-
wedd ing</w>
web sit
wear ing.</w>
weal thy</w>
weal th
we l</w>
we ight.</w>
we ig
weig h</w>
we b</w>
we ak
we 've</w>
we 'll</w>
way ,</w>
watch ing?</w>
watch ing.</w>
wat er?</w>
wat er,</w>
wat ch.</w>
was ted</w>
was hed</w>
was hed.</w>
war ned.</w>
war m.</w>
war ds</w>
want s.</w>
want ed.</w>
want ?</w>
wal ks.</w>
w rec
wrec k.</w>
w ound</w>
w oun
w ould've</w>
w oul
woul d.</w>
w ish
w ind</w>
w ind
w in</w>
w imp
w im
wim ming</w>
w ill.</w>
w are</w>
w ar</w>
w ais
wais t</w>
véri fi
vélo ,</w>
vé g
vég étari
vé cu
vrai e</w>
vr es.</w>
voyag er.</w>
voy ante.</w>
voy agent</w>
vous- même</w>
voul ais.</w>
vou s?</w>
volunte ered</w>
volont aires.</w>
volont aire</w>
vol é</w>
vol é.</w>
vol u
vol eurs</w>
vol eur</w>
vol eur.</w>
vol ant</w>
vol ant.</w>
vois ins.</w>
voi r,</w>
voi e,</w>
vo te</w>
vo te.</w>
viv re,</w>
viv ant</w>
viv ant.</w>
viv ant,</w>
vit re.</w>
vit esse.</w>
vit am
visit era</w>
visi onn
vis ité</w>
vis ion.</w>
vis age.</w>
virg in
vious ly</w>
viol ent</w>
viol ence</w>
viendr ait.</w>
viend riez</w>
vien s-tu</w>
vien s-
vieill ard</w>
vie ws</w>
vie w,</w>
vie illes</w>
vidé os.</w>
victor y.</w>
vic t
vict oire</w>
vi ous</w>
vi o
vi eux,</w>
vi es</w>
vi er
vi ent-il</w>
vi ennes</w>
vi enn
vi de</w>
vi d
vi ande</w>
veu t.</w>
veu ille</w>
vers é</w>
ver re,</w>
ver dict</w>
ver ,</w>
vend ent</w>
ven u.</w>
ven te</w>
ven ir
venir ,</w>
ven im
ven i
ven d</w>
veget ari
veget abl
vas e.</w>
vant er.</w>
valis es</w>
vali de.</w>
vali d</w>
vali d.</w>
val ue</w>
val u
valu able</w>
vach e</w>
vacanc es,</w>
vac u
vac ations.</w>
v ôtre.</w>
v ul
vul g
v rez</w>
v it.</w>
v int</w>
v ici
v ents</w>
v ated</w>
v ar
v al</w>
v ain.</w>
v ain
v ague.</w>
v ag
vag ue</w>
utilis ée</w>
utilis er.</w>
utilis e</w>
usu al</w>
usu al,</w>
ustri alis
us tries</w>
us h.</w>
us er</w>
us e.</w>
urg ence</w>
urg ed</w>
ur veille</w>
ur in
ur b
up set</w>
up iter</w>
univers ity.</w>
univers it
universit aire</w>
univer se?</w>
univer se.</w>
univer s.</w>
uni qu
uni form
understand ing</w>
underst ood.</w>
un ning</w>
un likely</w>
un ks</w>
un known</w>
un gar
ungar i
un g</w>
un employ
unemploy ed.</w>
un easy</w>
un der.</w>
un ciation</w>
un anim
um p
ul tim
ultim ate</w>
ui- ci</w>
ugl y.</w>
u m.</w>
téléphon es</w>
té m
tém oin</w>
ty r
ty pes</w>
ty !</w>
twent y-
twel ve</w>
tw ice.</w>
tw ic
twic e,</w>
tur ns</w>
tur b
tur .</w>
tun nel</w>
tug al</w>
tu é.</w>
tu y
tu t</w>
tu re?</w>
tu i
tu er.</w>
tu e</w>
tu ber
tuber cu
trus ting.</w>
trun k.</w>
tru m
tru ck</w>
trouv ée</w>
trouv âmes</w>
trouv e.</w>
trouv a</w>
trou ble
trou bl
trop ical</w>
trop hob
tromp eur.</w>
trom bone.</w>
tro le</w>
trip ?</w>
tribun al.</w>
tri ed.</w>
tri ang
trembl er</w>
trembl ements</w>
tre ize</w>
tre ats</w>
traver sé</w>
travaill erai</w>
travaill er,</w>
travaill ais</w>
travail les</w>
travail le.</w>
trav els</w>
trav el.</w>
trav el
transl ation</w>
trans por
transpor ted</w>
trans lu
trans fus
tranqu ille.</w>
tran ch
trai t
tradi tion.</w>
tradi ti
tra p</w>
tra hi.</w>
tra h
tra 's</w>
tr ône.</w>
tr é</w>
tr ou</w>
tr ig
tr ici
trici a.</w>
tr es,</w>
tr ation</w>
tr as.</w>
tr appe
tr ape</w>
tr ait</w>
tr age.</w>
tr ade</w>
tourist es.</w>
tour ne</w>
tou che.</w>
tou ch
tot ale</w>
tor ture.</w>
tor r
torr ents.</w>
tor i
too l</w>
ton gue.</w>
ton gu
ton ed</w>
tomorro w's</w>
tomb ent</w>
tom ed</w>
toil et?</w>
toil et</w>
toi -même</w>
toi -même.</w>
to wards</w>
to s
to day,</w>
to cks</w>
to -
to ,</w>
timi d.</w>
tim bre</w>
tig re.</w>
tick ets</w>
ti vement</w>
ti red?</w>
ti re.</w>
ti ra</w>
ti ll
ti lis
ti li
tili z
ti gh
ti ger</w>
ti es,</w>
ti ers.</w>
ti ens</w>
ti ennent</w>
ti e</w>
ti cip
théâ tre,</w>
thro p
thre at.</w>
thre at
threat ened</w>
thr one.</w>
though t,</w>
tho se?</w>
tho se.</w>
thir teen.</w>
thin ks.</w>
thin k,</w>
thin .</w>
thi ef</w>
thes e?</w>
thes d
thesd a.</w>
thermo st
thermost at</w>
thermo dynam
ther- in-
ther-in- law.</w>
ther mom
themsel ves</w>
them ,</w>
theat er.</w>
the a
thea tre.</w>
thank s.</w>
th é.</w>
th us</w>
th under.</w>
th eless</w>
tex t</w>
test am
terribl y.</w>
terribl ement</w>
terribl ement.</w>
terr or
termin é</w>
termin e</w>
ter s?</w>
ter s,</w>
ter re,</w>
ter rain</w>
ter mes</w>
ter me.</w>
ter ing</w>
ter i
ter fu
terfu ck.</w>
ter f
ter bro
tent ation.</w>
tend s</w>
tend enc
tendenc y</w>
ten tion.</w>
ten sions</w>
ten ir.</w>
ten ions</w>
ten ez</w>
ten ais</w>
temp ête</w>
temp t
tempt ation.</w>
temp s-
temp er</w>
tele phone.</w>
tel s</w>
tel ettes</w>
teen ager</w>
techno logi
teach ers</w>
teach er,</w>
teach er
te- à-
te ph
teph en</w>
te e
tee th.</w>
te book.</w>
te -t-il</w>
tatou ages</w>
tat too</w>
tar di
tal is
talis man,</w>
tal .</w>
tak en?</w>
tak e?</w>
tai l</w>
tai l.</w>
t- on</w>
t- elle</w>
t' ont</w>
t' ont-ils</w>
t' es</w>
t' entraî
t' entend
t' ennu
t' en
t' aurais</w>
t' attend.</w>
t' arrive</w>
t' aide</w>
t étan
t èrent</w>
t âche.</w>
t sun
tsun ami</w>
t sch
t ons.</w>
t less</w>
t led</w>
t le</w>
t inu
t eurs</w>
t es-
t ches</w>
t aux</w>
t ations,</w>
t arg
targ et.</w>
t ante</w>
t ante.</w>
t ai</w>
t act.</w>
t ables.</w>
sœur s</w>
séri eux,</w>
séri eusement</w>
séri eusement.</w>
séri euse.</w>
sépar ées.</w>
sépar ati
séparati stes</w>
sécur it
sécurit é,</w>
sé v
sé jour
syst em.</w>
sympa thi
sy n
swimm ing?</w>
sweat y.</w>
swe et</w>
swe ep</w>
sw inging</w>
sw am</w>
suy am
suyam a.</w>
surviv ants</w>
survi ve</w>
surpris ing</w>
surpris e,</w>
sur prend
sur pr
surpr is.</w>
sur pl
surpl omb
sur nom</w>
sur ger
sur -le-
suppos é</w>
suppor tive.</w>
supplément aires</w>
supplément aire.</w>
super mark
super flu
sup érieur</w>
sup porte</w>
sup per
sun scre
sunscre en?</w>
sum mer,</w>
sul fu
suit able</w>
suici dé.</w>
suggesti ons.</w>
suff ered</w>
sudden ly</w>
sudd en</w>
succe ed</w>
suc re,</w>
suc cess
sub way.</w>
su sh
su s.</w>
su ng
su me</w>
su is.</w>
su bi
subi r</w>
sty le.</w>
stupi des.</w>
studi es</w>
stu pé
stru c
struc ture</w>
stric t</w>
streng th</w>
strang ers.</w>
strang er.</w>
str ong
str at
str act</w>
stor y?</w>
stor m</w>
stop pe
stoppe d.</w>
stol en</w>
stitu teur.</w>
sti que</w>
sti mu
sti ck.</w>
sti c</w>
ste ering</w>
ste ak.</w>
stat us.</w>
star ted.</w>
star t?</w>
star ing</w>
st om
st ly</w>
st atu
statu t</w>
st ations</w>
st ati
stati sti
st ate.</w>
st are</w>
st ar</w>
st an</w>
st an
stan bu
st amp</w>
st all
st ain.</w>
st ade.</w>
st acked.</w>
st able</w>
squirre ls</w>
squ are</w>
spéci alis
sprin t</w>
spr ing.</w>
spr ing,</w>
spr ang</w>
sport s</w>
sport s.</w>
spor tif</w>
spo t</w>
spo t.</w>
spi red</w>
spi der.</w>
sph ere.</w>
spectat ors</w>
spectat eurs</w>
speci al</w>
spe ction</w>
sp y.</w>
sp ite</w>
sp in
souv ent.</w>
souti en</w>
souti en-
soutien- gor
souri re</w>
souri re.</w>
sour ces</w>
sour ce</w>
sour c
soun ding</w>
soulag ement.</w>
soul .</w>
souhai tez.</w>
soud ain
sou tient</w>
sou thern</w>
sou pir
sou lev
sou f
sou dure</w>
sou cis</w>
sorti e.</w>
sor t.</w>
sor row</w>
song s</w>
son s-
sons- le</w>
son né.</w>
son ge.</w>
som p
som bres.</w>
solu ble</w>
soli de</w>
sole ill
sole il.</w>
soldi ers.</w>
soldat s.</w>
sol ved</w>
sol ved.</w>
sol ent</w>
sol d
soixante- dix</w>
soix ante</w>
soiré e.</w>
soi rs.</w>
soi r,</w>
soi r
soi ent</w>
soi -même.</w>
sof tw
sof tly</w>
sof a</w>
sof a.</w>
soci été.</w>
soc ks</w>
soc cer.</w>
so in.</w>
so b
so -
sno b.</w>
smok e?</w>
smo ke.</w>
smar ter</w>
smar t,</w>
sm oo
sm as
smas hed</w>
sm all
sli p.</w>
sli d</w>
sleep y,</w>
sl ain</w>
ski p</w>
ski ing</w>
sk in.</w>
sk illed</w>
sk ier</w>
sièc le.</w>
siè ge</w>
situ e</w>
sis ters</w>
sing u
sing ing</w>
sing e</w>
sin k</w>
simpl e.</w>
silenci euse.</w>
sil es</w>
sil ent.</w>
sig ner</w>
sib le.</w>
si ze?</w>
si r,</w>
si mul
si gh
si ez-vous</w>
si este.</w>
si enne</w>
shor ter,</w>
shor t
shop ?</w>
shoc ked</w>
shoc k.</w>
sho w.</w>
shir t?</w>
shi p</w>
she er</w>
shar pen</w>
shar p</w>
sham e.</w>
sh y</w>
sh ut.</w>
sh u
sh ou
sh oot</w>
sh oo
shoo ting</w>
sh mal
shmal low
sh it.</w>
sh ine.</w>
sh in
sh aking</w>
seu l,</w>
set tled</w>
set back
servic es</w>
servic es.</w>
serv ed?</w>
seri ous</w>
seri es</w>
ser s.</w>
ser ré</w>
ser mon</w>
ser ions</w>
ser aient</w>
ser a-t-il</w>
separ ati
separati sts</w>
separ ate</w>
senti t</w>
senti ments</w>
senti ment</w>
senti ment.</w>
sent is</w>
sent ez</w>
sent ences.</w>
sent -
sensib le</w>
sens é.</w>
sen sé</w>
sen s.</w>
sen s-tu</w>
sen ce.</w>
sembl ant</w>
semb le,</w>
sem i-
sem ents</w>
self ,</w>
self !</w>
sel ler.</w>
sel fie</w>
sel dom</w>
secur ity</w>
secr étaire</w>
secon ds.</w>
secon des.</w>
sec tion.</w>
seas ons</w>
se ize</w>
se ille.</w>
se igner</w>
se i
se em
seem ed</w>
se ed
se e.</w>
se c.</w>
se arch
search ing</w>
se ar
se -toi</w>
scr at
scrat ching</w>
scol ded</w>
scis sor
scientifi que</w>
scienti st.</w>
sci ences,</w>
sci ence</w>
sci ence.</w>
schol ar</w>
scar f?</w>
sc and
say ing.</w>
sauv ages</w>
sau va</w>
sau ta</w>
sau f.</w>
satisfi ed</w>
satis fait.</w>
sang lo
sanglo ts.</w>
sandwi ch
sam ed
samed i</w>
salad e,</w>
salad ,</w>
sal ted</w>
sal ons</w>
sais it</w>
sais i</w>
sai t,</w>
sai e</w>
sai d?</w>
sai d,</w>
sac s</w>
sac red</w>
sa w.</w>
sa ou
sa le</w>
sa d.</w>
s'in cl
s'incl ina</w>
s'ag is
s' étaient</w>
s' écrit</w>
s' é
s' occup
s' inquiète</w>
s' habitu
s' ex
s' est-il</w>
s' enfu
s' endor
s' effor
s' ass
s' aim
s'aim aient</w>
s' adap
s'adap ter</w>
s wee
s wal
s pu
s oi.</w>
s mi
s m</w>
s low</w>
s itting</w>
s its</w>
s ill
sill y.</w>
s gi
sgi ving.</w>
s ev
s est</w>
s ends</w>
s cul
scul p
sculp ture.</w>
s bru
sbru ck
sbruck ,</w>
s aut
s ang</w>
s ais-tu</w>
s ain</w>
s ain.</w>
s ad</w>
s ...</w>
rê ves.</w>
révé la</w>
réveill é.</w>
réussi ra</w>
réus sit</w>
résul t
résou dre.</w>
résou dra</w>
résist ance.</w>
résidenti elle</w>
résid ent</w>
répon ses.</w>
répon du.</w>
répon dre.</w>
répon d
répar é.</w>
répar e</w>
rép éter</w>
rép and
régu lièrement</w>
régl er</w>
rég im
réfléch ir</w>
réf le
rédu ire</w>
réclam é</w>
réc it</w>
réalis é</w>
réalis er</w>
réalis er.</w>
ré volution</w>
ré vol
ré veille</w>
ré ti
ré sister</w>
ré side</w>
ré server</w>
ré se
ré s.</w>
ré proch
ré pan
répan dit</w>
ré ment</w>
ré gi
ré fri
réfri gér
réfrigér at
réfrigérat eur.</w>
ré el</w>
ré di
ré conc
réconc ili
ré com
ré chauff
ré able</w>
ré ,</w>
rè gl
règl es.</w>
rus se</w>
rus se.</w>
run ,</w>
rum eur.</w>
rul es.</w>
rub bish
ru se</w>
ru min
ru in
ru g</w>
ru e.</w>
rou p.</w>
room s</w>
ron y
rom pu</w>
rock s!</w>
robo t.</w>
rob b
ro ss
ro pl
ropl ets</w>
ro p
rop es.</w>
ro i</w>
ro dis
rodis i
ro bus
ro ad
riv al</w>
rist ina</w>
ris ques</w>
ris ques.</w>
ris ked</w>
rigol er.</w>
rific ation.</w>
rich es</w>
ri z</w>
ri x</w>
ri re</w>
ri ge</w>
ri f
ri el</w>
ri ce</w>
rhu me</w>
reven us.</w>
reu x.</w>
reu se</w>
retur n?</w>
retur n.</w>
retour ner.</w>
retar ded!</w>
ret our</w>
ret ard
resul ts.</w>
resul t</w>
rest ez</w>
rest erai</w>
rest er
ressour ces.</w>
ress enti
responsibil ity</w>
respons able</w>
respons abilité</w>
respon d</w>
respec té</w>
respec tent</w>
respec ted</w>
resour ces.</w>
resour ce
resource ful.</w>
resist ance.</w>
rescu ed</w>
res t.</w>
res pl
res ist</w>
res idential</w>
repai red</w>
repai red.</w>
repai r.</w>
rentr ée</w>
rend re.</w>
rend rai</w>
rend ait</w>
rencontr ée.</w>
rencontr ons</w>
rencontr e.</w>
rencontr a</w>
ren omm
renomm ée</w>
ren de</w>
ren card.</w>
ren 't</w>
remè de.</w>
remar qu
rem bour
rem ain</w>
reli ev
reli ef.</w>
relat ed</w>
relat ed.</w>
rel ation
relation shi
rejo ins</w>
regular ly</w>
regret te</w>
regret table.</w>
regard ed</w>
regard ait</w>
regard ais</w>
regard a</w>
regar d.</w>
refus er</w>
refus ait</w>
refus a</w>
refu ge.</w>
ref our.</w>
recogni zed</w>
recherch ons</w>
recev oir</w>
rec ent</w>
reach !</w>
re volution</w>
re viendra</w>
re venir.</w>
re ur.</w>
re trouvé</w>
re tiré</w>
re tirer</w>
re tired.</w>
re tir
re tenir</w>
re proch
re pro
re prise</w>
re pris</w>
re pres
re pous
re pos
re porter</w>
re port</w>
re port
re po
repo s.</w>
re plac
re passé</w>
re passer.</w>
re pas.</w>
re mu
re mo
re min
re le
rele as
re fres
re fois.</w>
re fl
re fer
re duced</w>
re d
re cover
recover y.</w>
re constru
re connu
re connais</w>
re cher
re charge
re ceive</w>
re all
ray ons</w>
rav i</w>
rass emb
ras ili
rasili a.</w>
rappell es-tu</w>
rappel ez</w>
rappel er.</w>
rap porte</w>
rang é</w>
rang ,</w>
ran us</w>
ramass é</w>
ram en
rais ins</w>
rain s.</w>
rain ing.</w>
rain ed</w>
rain ,</w>
rai son,</w>
rai ment</w>
rai .</w>
rag ie.</w>
radi um?</w>
radi o.</w>
racon té</w>
racon te</w>
rac es</w>
rab lement</w>
ra w.</w>
ra ce</w>
ra b</w>
ra -t-il</w>
r ôti.</w>
r é.</w>
r ying</w>
r y!</w>
r y
r un.</w>
r ound</w>
r ound.</w>
r oot</w>
r ons.</w>
r oll
r ly</w>
r ine.</w>
r il.</w>
r i</w>
r ho
r ented</w>
r ent.</w>
r ent
r ational</w>
r ation</w>
r ation
ration nel</w>
r ati
r ang</w>
r al
r ace.</w>
qu’ à</w>
qu’ il</w>
quotidi enne.</w>
quotidi enn
quotidi en</w>
quitt a</w>
quick ly</w>
qui et</w>
questionn aire.</w>
ques -
ques- unes</w>
quel s</w>
quel ques-unes</w>
quel con
quar ante</w>
quanti té</w>
quali fi
qu' ici,</w>
qu' en</w>
qu érir</w>
qu é.</w>
qu oi
quoi ,</w>
qu it.</w>
qu isi
qu ill
quill age.</w>
qu ie</w>
qu ent</w>
pê cher.</w>
pétr in.</w>
pé trole</w>
pâ le.</w>
pyrami des</w>
puzz le</w>
punctu al</w>
pun ished</w>
pun ish
pun i</w>
pul s
puiss ance</w>
puiss ance.</w>
puis ses</w>
puis que</w>
public ité.</w>
publi que</w>
publi que.</w>
pu té</w>
pu ts</w>
pu tain</w>
pu s.</w>
pu rification.</w>
pu ll</w>
pu its</w>
psych ic.</w>
psy chi
prê te.</w>
prévoy ez</w>
préven u.</w>
présid enti
présent é</w>
prépar ées</w>
préfè res,</w>
préf érence</w>
préf èrerais</w>
précis es.</w>
pré vois</w>
pré voir</w>
pré venu</w>
pré somp
pré server</w>
pré s
pré cé
pré co
prud ente.</w>
prud ent</w>
provi ennent</w>
proté ger</w>
proté ger.</w>
prote ction.</w>
propri été.</w>
propos a</w>
proper ty.</w>
proper ly.</w>
prop er</w>
prop ag
pronon ça</w>
pronon ciation</w>
pron unciation</w>
pron ounce</w>
prom is.</w>
prom et</w>
prom esse</w>
projet s.</w>
projec t.</w>
progress er</w>
program me</w>
profon dé
profondé ment</w>
profession al</w>
professi ons</w>
prof iter</w>
produc ts</w>
produc t?</w>
produc ed</w>
produ ira</w>
probl em
probab il
pro ximité</w>
pro ved</w>
pro test
pro se</w>
pro pul
pro cé
priv il
priv ate.</w>
princip ales</w>
princip alement</w>
princ ess</w>
princ ess.</w>
prin temps.</w>
prin ted</w>
prin ci
pri me</w>
pri e,</w>
preu ves</w>
pretti est</w>
pret ended</w>
pret end
press ée,</w>
press é.</w>
presid ent's</w>
preser ve</w>
pres sure</w>
pres sure.</w>
pres se</w>
pres idential</w>
pres ence.</w>
prend s-moi</w>
pren ant</w>
pregn ant?</w>
prefer ,</w>
pre vious</w>
pre tend</w>
prati quer</w>
prac tical</w>
pr être</w>
pr u
pr oo
pr it,</w>
pr irent</w>
pr int
pr ince</w>
pr enne</w>
pr aise.</w>
pr ais
prais ed</w>
pow er</w>
pouv oir.</w>
pous si
pourr ais-je</w>
pour suivi</w>
pour riez-vous</w>
poup ées.</w>
pou vions</w>
postu re.</w>
possib le?</w>
posi tive.</w>
port s</w>
port ant</w>
port able</w>
por tion</w>
popul aires.</w>
popul ai
populai res,</w>
ponctu el.</w>
pon d</w>
pom mes.</w>
politici an</w>
poli tique</w>
poli cier</w>
pois on
poe m</w>
po ési
po ète</w>
po èmes.</w>
po x</w>
po t</w>
po t.</w>
po ker.</w>
po it
poit rine.</w>
po et</w>
po em
po ches</w>
po che</w>
po che.</w>
plu riel</w>
plu ies.</w>
pleuvr a</w>
pleur ait</w>
pleu v
pleas ures</w>
ple ins</w>
ple ine</w>
plas h.</w>
plant é</w>
plant er</w>
plan et.</w>
plan ?</w>
plais ante</w>
plais ante.</w>
plais ant
plain tes</w>
plai t,</w>
plai sir.</w>
plaf ond.</w>
plac es</w>
plac e?</w>
pla ç
pl us?</w>
pl ural</w>
pl or
pl ong
pl ex
plex e.</w>
pl es</w>
pl es,</w>
pl ement</w>
pl ant</w>
pl aire.</w>
pl age</w>
piè ge</w>
pizz a,</w>
pisc ine</w>
pis to
pir er.</w>
pir ate</w>
pique-ni que</w>
pique-ni que.</w>
pill s</w>
pil u
piec es</w>
pick pocket.</w>
pic ture?</w>
pic ture.</w>
pic ture,</w>
pic k</w>
pian o?</w>
pi ég
pi erre</w>
pi erre.</w>
pi erre
pierre -
pierre- papi
pierre-papi er-
pierre-papier- cis
pi er
phénom ène</w>
phénom ène.</w>
physi que</w>
photo syn
photo s,</w>
photo grap
photo copi
photo ?</w>
phon es.</w>
peu pl
petit- déjeuner</w>
persévér ance</w>
persu ad
perspecti ve</w>
personn el.</w>
person nes.</w>
person nag
personnag es</w>
person ality.</w>
person al</w>
persever ance</w>
perman ent</w>
perfect ly</w>
perdu e</w>
perdu e.</w>
per sion</w>
per plexe.</w>
per ons</w>
per met</w>
per met
per dit</w>
per des</w>
per d</w>
per d
per ception</w>
per cent</w>
per ate.</w>
peo pl
pense z.</w>
pens ées</w>
pens er.</w>
pend u
pencil ?</w>
pen cha</w>
pen ?</w>
pein tures</w>
pein ture</w>
peanu ts</w>
pe t.</w>
pe d
pe ace.</w>
pe ac
peac eful</w>
pe -
pay ?</w>
pauvret é</w>
pauv re.</w>
pau vres</w>
patri oti
pati ents</w>
pat ent</w>
passe- temps</w>
passe- temps.</w>
passe z-vous</w>
passe port</w>
passe port.</w>
passe -t-il</w>
pass és</w>
pass port</w>
pass port.</w>
pass erai</w>
pass era</w>
pass ant</w>
pas s.</w>
particip é</w>
parti ra</w>
parti ally</w>
part is</w>
part ager</w>
part agent</w>
part age</w>
paro v</w>
paro les</w>
parl er,</w>
parl ent.</w>
parl ait.</w>
parfai tement</w>
parfai tement.</w>
parfai te.</w>
paress eux.</w>
para pluie.</w>
para pluie,</w>
par venu</w>
par v
par tout</w>
par ten
par te.</w>
par t,</w>
par ole</w>
par ole.</w>
par lon
parlon s-nous</w>
par le
parle -t-il</w>
par i.</w>
par fu
par ents?</w>
par eil</w>
par cour
par c</w>
par as
paras ol.</w>
par an
par ach
parach u
papi ers</w>
pap ill
pap er-
paper- scissor
pain t</w>
pain t.</w>
pain ful.</w>
pain ,</w>
pai erai.</w>
paci fi
pacifi ques.</w>
paci f
pa th.</w>
p és</w>
p ér
p ée</w>
p ush</w>
p ter</w>
p se</w>
p re</w>
p oule.</w>
p ont</w>
p neu
pneu mon
p it</w>
p inte</w>
p in</w>
p ill</w>
p eur,</w>
p et</w>
p elle</w>
p aus
paus ed</w>
p anc
p am
p ages</w>
p age.</w>
p acked</w>
p ack
p ach
pach in
pachin ko</w>
p a</w>
p .
p. m.</w>
p ,</w>
over looked</w>
ouvr is</w>
ouver tes.</w>
ouv er</w>
out ons.</w>
out onne</w>
ous se</w>
ous ly.</w>
ous ines</w>
ous es.</w>
ous ands</w>
our s?</w>
oun t</w>
oun es</w>
oun d,</w>
oun an.</w>
oubli ez</w>
ou x</w>
ou ve</w>
ou trage.</w>
ou ti
ou ter</w>
ou te.</w>
ou se.</w>
ou ff
ou b</w>
ou b
oub le-
ouble- cli
ou .</w>
oti on
oti c</w>
ot ine.</w>
ot !</w>
os er</w>
os aur
orm ous</w>
origin al.</w>
origin aire</w>
ori ze</w>
ori ko.</w>
ori es</w>
ori ent
organi zed.</w>
organ is
ordin aire</w>
order ing</w>
or te
or o-
oro- san.</w>
or ity.</w>
or dres</w>
or dres.</w>
or dre.</w>
or donna</w>
or dered</w>
or d.</w>
or d
ord an</w>
or cis
or c
orc ez-vous</w>
or bite</w>
oppos ite</w>
opportun ité.</w>
opportun ity</w>
opini ons.</w>
oper ate</w>
open ?</w>
op â
op tions.</w>
op posé</w>
op k
opk ins.</w>
op hy
op ed</w>
op a
opa tra's</w>
ook s</w>
ook er</w>
oo dy</w>
onne l</w>
onn é.</w>
onn aise.</w>
ongl es.</w>
onc le.</w>
on éreuse.</w>
on ze</w>
on to</w>
on ies.</w>
on go.</w>
on aire.</w>
omm age</w>
om i.</w>
om bi
om ati
om .</w>
olog y.</w>
olog ist</w>
olo gue</w>
ol ympi
ol low</w>
ol lo</w>
ol des
oldes t.</w>
ol d,</w>
ol d
old man</w>
oi r,</w>
oi l</w>
offic er</w>
offens er.</w>
off ici
off ert</w>
off ended</w>
off en
off e</w>
off ?</w>
ocr ac
oce an.</w>
occur red</w>
occup és</w>
occup és.</w>
occup ées.</w>
occup ée</w>
occup ée,</w>
occu r</w>
oc ío.</w>
oc key</w>
oc a-
oca- Co
oca-Co la</w>
oblig ée</w>
oblig é</w>
oblig ed</w>
objec tive</w>
objec tion.</w>
objec tif.</w>
objec t</w>
objec t.</w>
obe yed</w>
obe y</w>
ob é
ob viously</w>
ob u</w>
ob tient</w>
ob tenir</w>
ob serve</w>
ob in
obin son</w>
ob .</w>
o y</w>
o xy
o wn.</w>
o ton
o te</w>
o lives</w>
o is</w>
o is,</w>
o il.</w>
o dd
o che</w>
o ch
n’ y</w>
né go
négo ci
numb ers.</w>
nu ts</w>
nu méri
nu mé
numé ro.</w>
nu it,</w>
nu e</w>
nu age</w>
nu .</w>
nov emb
nouv elle.</w>
nor th.</w>
nor mal</w>
nor m
norm aux.</w>
nor d.</w>
nom s</w>
nom bres.</w>
no where</w>
no w!</w>
no tion</w>
no tice</w>
no ter</w>
no tebook.</w>
no te.</w>
no on.</w>
no ire.</w>
no c
nitu de</w>
nic otine.</w>
ni g
ner vous</w>
ner veux</w>
ner ve!</w>
neighbor s</w>
neighbor s.</w>
neighbor hood.</w>
need ?</w>
nee dn't</w>
ne z-vous</w>
ne go
nego ti
ne g
ne es.</w>
ne ed.</w>
ne au</w>
ne ;</w>
ne -moi</w>
natu rel
natu re,</w>
natu re
nation alis
nat ur
nai ve.</w>
nage a</w>
na ï
n'arriver a</w>
n'arriv ait</w>
n' étudie</w>
n' étions</w>
n' t.</w>
n' irai</w>
n' existe</w>
n' eut</w>
n' eus</w>
n' ayez</w>
n' avez-vous</w>
n' aurait</w>
n ég
n y!</w>
n sbruck,</w>
n our
n ou
n ons</w>
n ing?</w>
n ick
n esty</w>
n ative</w>
n as
nas ty</w>
n arro
n ap.</w>
mê me,</w>
métho de</w>
mérit ons</w>
médicam ents</w>
médicam ent</w>
médec ine</w>
méd aille</w>
mé ti
mé pris
mé moire.</w>
mé m
mém oire</w>
mé lang
mé dit
mé de
méde cin
médecin ,</w>
mé can
myst ère</w>
myst ery</w>
museu m.</w>
mur mur
mur der
mul aire.</w>
mu m
mu g.</w>
mu ch
much ?</w>
mpi c</w>
moy enne.</w>
mouv ement</w>
mount ains</w>
mou rir.</w>
mou che</w>
morce aux</w>
mor ning,</w>
mor e,</w>
montr é</w>
montr ent</w>
montr a</w>
mont ag
montag nes</w>
mone y,</w>
mondi al.</w>
mon y</w>
mon té</w>
mon oton
mon key</w>
mon de,</w>
mom ent?</w>
mom ?</w>
moi tié.</w>
mo vement</w>
mo ther-in-law.</w>
mo teur</w>
mo tel</w>
mo t,</w>
mo stly</w>
mo s
mo que</w>
mo qu
mo on.</w>
mo cr
mistak es,</w>
mistak en.</w>
mistak e!</w>
mis sionn
mis sion</w>
mis sed.</w>
mirac le</w>
mir ent</w>
minu it.</w>
minim um.</w>
min y,</w>
min is
minis tration</w>
min eur.</w>
min es</w>
min d?</w>
min d,</w>
milli onn
milli ards</w>
mili eu</w>
mil k
mil es</w>
mign ons.</w>
mid night.</w>
micros cop
microscop e.</w>
micros co
mi ons</w>
mi ens.</w>
mi enne</w>
mi en.</w>
mi e.</w>
mi di.</w>
meur tre</w>
met tr
met tais</w>
mess ed</w>
mess ages.</w>
merc y.</w>
mer dé.</w>
mer de.</w>
mer ci.</w>
mer ?</w>
menti r</w>
menti r.</w>
menti ,</w>
men u.</w>
men tion</w>
men songe</w>
men songe.</w>
men sion</w>
men acé</w>
memb re</w>
memb er</w>
mem ory.</w>
meill eurs</w>
meill eur
meilleur es</w>
medic ine.</w>
mean ings.</w>
mean ing</w>
me z.</w>
me et.</w>
me eny,</w>
me cs</w>
me at</w>
me as
me ans?</w>
me an.</w>
me als</w>
me al</w>
me al.</w>
maî tre</w>
may onnaise.</w>
matin ée.</w>
mathemati cs</w>
mat ern
matern elle.</w>
mat e.</w>
mas tered</w>
mas ter.</w>
mas och
mas ,</w>
marte au</w>
marte au.</w>
marri ed?</w>
marr ant</w>
market ing.</w>
mari és.</w>
mari ée.</w>
mari é.</w>
march er.</w>
march ant.</w>
mar shmallow
mar ath
marath on.</w>
manu elle</w>
manu el</w>
manu al?</w>
mant eau,</w>
manqu ez</w>
manqu ent.</w>
mani pul
mang ez</w>
mang er,</w>
man us
man t.</w>
man ques</w>
man que.</w>
man age</w>
mam an.</w>
maladi e.</w>
mal sain.</w>
mal igne</w>
mal h
mal gré</w>
mal entend
malentend u.</w>
maj ority</w>
maj or
main e.</w>
mai sons.</w>
mai son,</w>
mai ne</w>
magnifi que,</w>
magaz in
mag nitude</w>
mag ici
mad ness.</w>
ma quillage.</w>
ma h
m'appel er.</w>
m'ai der
m' écouter.</w>
m' occuper</w>
m' intéresse</w>
m' inquiète</w>
m' envoyer</w>
m' entretenir</w>
m' ennuy
m' emb
m' asseoir</w>
m' arrêter.</w>
m' apprend</w>
m' accus
m'accus er</w>
m ènent</w>
m ène</w>
m ourr
m oul
m om</w>
m ol
m ez</w>
m ess</w>
m ess.</w>
m es-
m es,</w>
m ere</w>
m ap
map ?</w>
m ans</w>
m a.</w>
m ?</w>
l’ét offe</w>
l’ œil</w>
l’ étranger.</w>
l’ autre</w>
l’ argent.</w>
lég er.</w>
lég end
lé opâ
lé ,</w>
là- ded
là-ded ans.</w>
là- bas
là-bas ,</w>
lyc ée</w>
lyc ée.</w>
ly mpic</w>
lun dis</w>
lumi ères</w>
lu x
lu gg
lu de</w>
loy al.</w>
lov ed.</w>
lou pé</w>
lou er</w>
lou d</w>
look ?</w>
longu es.</w>
longu e</w>
long -
lon ely</w>
lon ely.</w>
lon el
log ici
loc ation</w>
lo yer.</w>
lo ver</w>
lo ver.</w>
lo r</w>
lo is
lois ir
loisir s</w>
lo in,</w>
lo cked.</w>
lo ck</w>
lo cat
locat ed?</w>
lo cal
liv re,</w>
liv es?</w>
liv er</w>
liv ed.</w>
listen .</w>
lin k</w>
lin es.</w>
lim ousines</w>
lim ite</w>
lik e?</w>
ligh ts</w>
ligh t
lig né</w>
lig nes</w>
lig nes.</w>
life 's</w>
lif e?</w>
lic t</w>
lic ense
license ?</w>
lic .</w>
li que</w>
li n</w>
li eu.</w>
li er.</w>
li e,</w>
li chée</w>
li c</w>
li bre
li b
li ar.</w>
li .</w>
lev ez-vous</w>
lev el</w>
let tres</w>
let tres.</w>
let ters,</w>
les son?</w>
les son.</w>
lent ement</w>
lef to
lec ture</w>
leav es.</w>
lea f</w>
le- mère.</w>
le çon.</w>
le j
lej andra</w>
le is
leis ure</w>
le d?</w>
le ave?</w>
le aped</w>
le ad</w>
le "</w>
law yer</w>
lav és.</w>
laugh ter.</w>
lat in.</w>
lat er?</w>
lat er,</w>
lat ely.</w>
larg ement</w>
lap ins</w>
languag es!</w>
langu es,</w>
land e.</w>
lanc é</w>
lam ist
lais sa</w>
lai tiers.</w>
lad y</w>
laborat oire</w>
lab or.</w>
lab or
la ïde</w>
la w</w>
la s.</w>
la p</w>
la c</w>
l'étrang er</w>
l'ét é.</w>
l'ét ang.</w>
l'ét agère.</w>
l'épo que.</w>
l'églis e.</w>
l'é volution</w>
l'é vid
l'é qui
l'é nig
l'é nergie</w>
l'é cri
l'é cou
l'é co
l'éco le,</w>
l'univers ité</w>
l'océ an.</w>
l'in stituteur.</w>
l'in form
l'inform ation</w>
l'esp ace.</w>
l'es c
l'esc ali
l'em porter.</w>
l'em mène</w>
l'av enir.</w>
l'autor oute.</w>
l'ar bre</w>
l'apprentiss age</w>
l'ami tié.</w>
l'am our.</w>
l'allem and</w>
l'ai me.</w>
l'ai l.</w>
l' être</w>
l' été</w>
l' ère</w>
l' É
l' univers.</w>
l' intérêt</w>
l' héroï
l'héroï ne.</w>
l' hé
l' human
l'human ité.</w>
l' her
l'her be.</w>
l' expéri
l' existence</w>
l' espagnol.</w>
l' entrée.</w>
l' ennemi</w>
l' ennem
l'ennem i.</w>
l' enfant</w>
l' en
l' effet</w>
l' avait</w>
l' autoris
l' automne</w>
l' arrêter.</w>
l' arri
l' après-midi.</w>
l' apprécie.</w>
l' anniversaire</w>
l' and
l'and ou
l' affaire</w>
l' affaire.</w>
l' addi
l' U
l âche</w>
l âche.</w>
l ton.</w>
l s,</w>
l ons</w>
l oi.</w>
l in.</w>
l i</w>
l ente.</w>
l end
lend em
lendem ain.</w>
l ement.</w>
l ave</w>
l au
l ass
l as
l ar</w>
l ake</w>
knowle dge.</w>
kno ws.</w>
kno wn.</w>
kno cked</w>
kni ves.</w>
kis sing</w>
kind ness</w>
kind ,</w>
kilom è
kil os.</w>
kil e
kile ak
kileak s</w>
kid ding.</w>
ki o</w>
ki d.</w>
k s,</w>
k nees.</w>
k n
k ill
k es.</w>
k awa</w>
k ara
jus ti
jum ped</w>
jug ement</w>
journ ée,</w>
journ al.</w>
jour -là.</w>
jou ets</w>
jou er.</w>
jou ant</w>
jou ais</w>
joi e.</w>
job s.</w>
jo y</w>
jo y.</w>
jo lie.</w>
jo li.</w>
jo kes.</w>
jo ke.</w>
jo ined</w>
jet er</w>
jell yfish.</w>
je an</w>
japon aises.</w>
jam be</w>
j' irai</w>
j' aurai</w>
j' arrive</w>
j' aime</w>
j ’ai</w>
j oli</w>
j oie</w>
j i.</w>
j ette</w>
j e,</w>
j b
jb an.</w>
j az
iv re.</w>
itt ing.</w>
it és</w>
it és.</w>
it ées.</w>
it z.</w>
it y,</w>
it self</w>
it e?</w>
it ate</w>
it alis
it -il</w>
ist ?</w>
iss ant</w>
is te-t-il</w>
is sons</w>
is sion</w>
is sez</w>
is sez-vous</w>
is sent</w>
is se</w>
is me.</w>
is m</w>
is m.</w>
is ez</w>
is es</w>
is a</w>
is !</w>
ir é.</w>
ir réproch
ir réguli
ir oned</w>
ir on</w>
ir mer</w>
ir ait</w>
ir ac
irac ul
invit és</w>
invit ée</w>
invit é.</w>
invit ation.</w>
inven tion.</w>
inven tion,</w>
inv enter</w>
intérê ts</w>
intéress és</w>
intéress ée</w>
intéress ent</w>
intér essez-vous</w>
intimi dée.</w>
internation al</w>
interest s</w>
inter dit.</w>
inter cep
intellig ente.</w>
intellig ence</w>
int act.</w>
insur ance</w>
institu trice</w>
inst antly</w>
inqui ét
inju red</w>
ing s,</w>
ing eni
ingeni ous</w>
ing ;</w>
informati que</w>
inform ations</w>
infect ants.</w>
inf anti
infanti le</w>
indé pendante.</w>
indic ation</w>
indi vi
indi que</w>
independ ent.</w>
ind ustrialis
ind ustr
increas ed</w>
inc ess</w>
in ée.</w>
in téri
in tui
in time.</w>
in ter</w>
in tention.</w>
in suff
in spection</w>
in solent</w>
in obu</w>
in for
in fin
in croy
in come.</w>
in col
incol n</w>
impro ved.</w>
impro ve</w>
imprim é</w>
impressionn ée.</w>
impliqu é</w>
impliqu é.</w>
imp sons.</w>
imp oli</w>
immédi at.</w>
immor tal.</w>
imagin ation</w>
imagin able.</w>
im pul
im bé
imbé ci
imbéci le</w>
illi r</w>
illeg al</w>
ill ade</w>
ili ties</w>
ili p,</w>
il lie.</w>
il es,</w>
ignor ais</w>
ignor a</w>
ign it</w>
idé es.</w>
idi ote.</w>
idi ot!</w>
idi omati
ick y.</w>
ick pockets</w>
ick Dis
ickDis play</w>
ick ."</w>
ici ?</w>
ich el
ichel t</w>
ic s</w>
ic ots</w>
ic es</w>
ic ass
icass o</w>
i tion</w>
i ther</w>
i ons.</w>
i on
i ko</w>
i gu
igu ch
iguch i.</w>
i er.</w>
i d</w>
i cher</w>
i ble</w>
i '
i' .</w>
hôpit al</w>
hô tel.</w>
héro s</w>
héro s.</w>
hér itage</w>
hy dro
hydro g
hur ry,</w>
hur le</w>
hungr y?</w>
hungr y</w>
hun g</w>
hun ch</w>
humili ated.</w>
hum our.</w>
hum eur.</w>
hu t</w>
hu mi
hu maine</w>
hu maine.</w>
hu la</w>
horrifi ed.</w>
horri ble.</w>
hor ror</w>
hor loge</w>
hoo p.</w>
hoo d,</w>
honn êteté.</w>
hon gro
hon ey</w>
hon ey
honey moon</w>
hon est</w>
homo sexu
home work</w>
hom el
hol e.</w>
hob by</w>
hob by.</w>
him a</w>
high .</w>
hi érarchi
hi re</w>
hi er,</w>
hi d</w>
heureus es.</w>
heureus es,</w>
heureu x,</w>
heur té</w>
heur es,</w>
heu re,</w>
her oin</w>
her o.</w>
her o
her e!</w>
her ?</w>
her !</w>
help ful.</w>
hel l
heav y.</w>
heav ily</w>
heav ens.</w>
hear t
hear ing</w>
heal thy</w>
head ed</w>
head ache.</w>
head ach
headach e,</w>
he d
he at</w>
hau tement</w>
hau te</w>
hau t.</w>
harv est</w>
hard est</w>
hard ,</w>
har m</w>
har icots</w>
har der</w>
har amp</w>
happin ess.</w>
happen s</w>
happen s.</w>
happen ed?</w>
happ iest</w>
happ ier</w>
hand some</w>
hand led</w>
hand ed</w>
hand ball</w>
ham mer.</w>
ham bur
hambur ger</w>
hal f
half way</w>
habitu des</w>
habit ait</w>
hab it</w>
hab ille</w>
ha ïs
ha -
h stan</w>
h rodisi
h ouses.</w>
h ockey</w>
h o</w>
h ill
h i</w>
h e.</w>
h aut
h ated</w>
h all</w>
gê né.</w>
génér al</w>
génér al,</w>
géni es.</w>
géni al.</w>
gé ante</w>
guér i</w>
guit are</w>
guit ar</w>
guim bar
guimbar de</w>
guil ty?</w>
gueu le</w>
guer rier.</w>
gu y</w>
gu ides</w>
gu eux</w>
grou pe.</w>
great ly</w>
gre es</w>
gre en</w>
gre at.</w>
gratu it.</w>
grand- mère.</w>
grand ma</w>
gr on
gr ass.</w>
gr am
gr ais</w>
govern ment.</w>
gouvern ement.</w>
gout telettes</w>
gos lav
goo d
good by
goodby e?</w>
gol f</w>
go v</w>
go ing.</w>
go !</w>
gn irent</w>
glis sé</w>
glis sa</w>
gl ed</w>
gl ass.</w>
gl ace</w>
girl s'</w>
gif t.</w>
gi g
gho sts.</w>
gh ten
genti l,</w>
geni uses.</w>
gener ation.</w>
gener ally</w>
gen u
gen oux</w>
gen oux.</w>
gau che</w>
gau che,</w>
gasp iller</w>
garder ai</w>
gar é</w>
gar s.</w>
gar lic.</w>
gar er</w>
gam es.</w>
gam bling.</w>
gag né.</w>
gag ne.</w>
g éri
g è
g â
g yptian</w>
g un</w>
g rés</w>
g re.</w>
g one.</w>
g old.</w>
g nore</w>
g lobal</w>
g ey
gey ser</w>
g end
g ed</w>
g by</w>
g ay</w>
g ang
g ,</w>
fê tes.</w>
fê te,</w>
félic iter</w>
fâ ché.</w>
fus illade</w>
furnitu re</w>
ful l.</w>
fuc ked</w>
fu tur.</w>
fu t.</w>
fu se</w>
fu m
fu el.</w>
fréqu ent
fronti ère.</w>
fron t.</w>
froi de.</w>
friend ship.</w>
friend s?</w>
friend ,</w>
fri ghten
fri ed.</w>
fri dge.</w>
fres h</w>
fre e
fre d,</w>
frapp ée</w>
frapp er</w>
frapp e.</w>
fran co
fran ch
fr ères.</w>
fr ustr
fr anc
franc s.</w>
fr ame</w>
fr ais</w>
fr ais.</w>
fr ).</w>
four nir</w>
four ch
fou tu</w>
fou illa</w>
forê t.</w>
forec ast</w>
fore ign
forc ée</w>
for tes</w>
for te.</w>
for ni
for mulaire.</w>
for mu
for m.</w>
for given</w>
for est.</w>
for cé
forcé ment</w>
for ce.</w>
foo t</w>
foo t.</w>
fonctionn é.</w>
fon dit</w>
fon ction</w>
fon c
follow s</w>
fol le</w>
fo lie.</w>
fo lie,</w>
flu or
flu ctu
flow ers</w>
flow er
flower s?</w>
flav or</w>
fl ying</w>
fl ash
fix e</w>
fir m</w>
fir m.</w>
fing er.</w>
financi al</w>
fin s</w>
fil e.</w>
fiel d</w>
fidè le</w>
fidè le.</w>
fi é.</w>
fi èvre.</w>
fi red</w>
fi red.</w>
fi re
fi le</w>
fi f
fi ers</w>
fi che</w>
fi anç
ff orcez-vous</w>
feu illes.</w>
feu ille</w>
fermé s.</w>
ferm é.</w>
fer tiliz
fer ont</w>
fer mer.</w>
fer ait</w>
fer ais-tu</w>
fer a.</w>
fenê tre,</w>
fel low</w>
fe et.</w>
fe ar.</w>
fe ar
favor i</w>
faus se.</w>
faul ts.</w>
faul t</w>
fau ts.</w>
fau dra</w>
fatigu ée</w>
fas ter.</w>
fas t!</w>
fas hi
fas cin
far ?</w>
fantô mes.</w>
famili ar.</w>
famil y?</w>
famil ier</w>
fall "</w>
fal se.</w>
faith ful.</w>
fai t-il</w>
fai rly</w>
fai r.</w>
fai né
fai lle</w>
fai led.</w>
fac tures</w>
fac tor
fac es.</w>
f ts</w>
f out
f ound
f lies</w>
f le
f is</w>
f illes,</w>
f esti
f end
f ed</w>
f ate.</w>
f at.</w>
f at
fat al</w>
f ans</w>
f all.</w>
f ,</w>
ez- le</w>
ey mar</w>
ey e.</w>
extrem ely</w>
extr a</w>
explo sion.</w>
explo itées.</w>
expliqu a</w>
explan ation</w>
experi ences</w>
experi enc
expen ses</w>
expec ting</w>
exis t</w>
exig e</w>
exempl e.</w>
excus é.</w>
excus es,</w>
excus e.</w>
excit ed?</w>
excep tion.</w>
excell ence</w>
excel lent</w>
examin er</w>
examin ation</w>
exam ined</w>
exam ine</w>
exac tes.</w>
ex écuter</w>
ex ténu
ex pos
ex pi
ex orcis
ex it.</w>
ex h
ex cept</w>
ex ag
every one.</w>
every day</w>
even ing?</w>
even ing</w>
ev in</w>
ev entually</w>
ev ents.</w>
europé enne.</w>
euro s</w>
eu tsch
eu reux</w>
eu m</w>
eu ,</w>
et ing.</w>
et er,</w>
et anus</w>
estimat ed.</w>
estim ate</w>
est- à-
est é</w>
est ors</w>
est om
est ini
est ed.</w>
essenti elle</w>
essenti al</w>
essay é.</w>
essai m</w>
ess es</w>
ess ay</w>
espér ons</w>
espe are,</w>
espagno l</w>
esp oir</w>
esc o</w>
es suy
es se,</w>
es pi
es e?</w>
es cor
es chat
es ;</w>
erreur s</w>
err ors.</w>
err ati
ern ard</w>
er villes.</w>
er ror</w>
er ont.</w>
er o
er lin.</w>
er e,</w>
er e
er born</w>
er as</w>
er ais-tu</w>
er 's</w>
environn ement</w>
environn ement.</w>
environ ment.</w>
enva hi</w>
env y</w>
entre -
entre- ville.</w>
entr ées</w>
entr ance.</w>
enti èrement</w>
enti ère</w>
enti sts</w>
enti rely</w>
enti er</w>
enti er,</w>
entend ez.</w>
ent ées.</w>
ent our
ent endit</w>
enregis tré</w>
enough ?</w>
enough !</w>
ennu yeux,</w>
enjo yed</w>
engag ement.</w>
eng ineers</w>
enf ance</w>
enf ance.</w>
energ y.</w>
enem y.</w>
endur er</w>
endro its</w>
endor mie.</w>
end rix</w>
end re</w>
end ings.</w>
end ed.</w>
encor e,</w>
ence inte</w>
en- ciel</w>
en soleill
en rich
en ormous</w>
en lève</w>
en grais</w>
en ess</w>
en courage</w>
en cour
en coun
encoun ter</w>
emprun té</w>
employ és</w>
employ é</w>
employ er</w>
empl oie</w>
emerg ency.</w>
embrass é</w>
embrass er.</w>
embarrass ée.</w>
emb er,</w>
em pre
em otion
em ment</w>
em ment,</w>
em mener</w>
em bl
ell ement.</w>
ell ed</w>
ell ,</w>
eli eve</w>
elec tric
el son</w>
el oped</w>
el fast.</w>
el et</w>
el ess
el er</w>
el e
ele ph
el a.</w>
eigh ty</w>
egg s.</w>
effray é</w>
effic ace.</w>
effec tuer</w>
effec t</w>
effec t.</w>
eff acer</w>
ef its</w>
ef ?</w>
edu cated</w>
ed om</w>
ed it
ed ing.</w>
ed ;</w>
ec ently</w>
eb ook</w>
eas y-
eas iest</w>
eas es</w>
earthqu ake.</w>
ear lier</w>
ear ch
earch ers</w>
e ût</w>
e ther</w>
e ing</w>
e es.</w>
e duc
e aux.</w>
e au-
e ante.</w>
e ager</w>
e ables.</w>
e B
eB ay.</w>
e !!</w>
déç ues.</w>
déç u.</w>
détru it</w>
détru ire</w>
détermin é</w>
dét aill
désol ée.</w>
dési re</w>
dési r</w>
désas tre</w>
dépê cher.</w>
dénu é</w>
délici eusement</w>
déli r
déjà .</w>
déjà ,</w>
déjeu né</w>
dégag é.</w>
défil é</w>
déf i.</w>
décé dée</w>
décé dé.</w>
découver te</w>
décl ina</w>
décl en
déci dé.</w>
déc ès</w>
déc ouv
déc ev
débarr asser</w>
déb at</w>
dé vas
dé sh
dé ser
dé s.</w>
dé puté</w>
dé préci
dé prim
dé pourvu</w>
dé pou
dé pit</w>
dé pensé</w>
dé penser</w>
dé pense</w>
dé passé</w>
dé mocr
dé missionn
dé mar
dé laïde</w>
dé fini</w>
dé fin
dé fie</w>
dé fauts.</w>
dé fai
dé courag
dé col
dé chi
dé ch
dur ent</w>
dumb er</w>
dumb .</w>
duc ted</w>
du ty</w>
du l
drow ned</w>
dro p.</w>
dro om</w>
dro its.</w>
dro ite.</w>
drin k,</w>
dri an.</w>
dre w</w>
dre am.</w>
dr ôle</w>
dr y</w>
dr essed</w>
dr ess.</w>
dr es
dr ap
drap eaux</w>
dr ais-tu</w>
dr ag
down town.</w>
down stairs.</w>
doul ou
doul eur.</w>
douc ement</w>
doub t.</w>
dou te.</w>
dou che.</w>
dor s</w>
dor mis</w>
dor mant.</w>
door !</w>
donne -
donn eurs</w>
donn er
domm age.</w>
dol ls.</w>
doig t.</w>
dog s,</w>
dog mati
docu ments.</w>
do tée</w>
do tes</w>
do ors</w>
do ors.</w>
do it.</w>
do is.</w>
do is-je</w>
do ing.</w>
dix- huit</w>
divor cer.</w>
divor c
distribu ted</w>
distingu ish</w>
distingu er</w>
dist ances.</w>
dist ance</w>
dispu ter</w>
dispos es.</w>
dispos er</w>
dispo sez</w>
dispo se,</w>
dispar u.</w>
dispar aiss
dish es</w>
dish es.</w>
disgus ting.</w>
discover y.</w>
discoun t?</w>
dis su
dis persion</w>
dis obeyed</w>
dis liked</w>
dis es</w>
dis ent.</w>
dis e.</w>
dis crimin
dis courage</w>
dis charged</w>
dis as
dis agree</w>
dis .</w>
dis -
dirige a</w>
direc tor.</w>
direc tement</w>
direc t.</w>
dir ty</w>
dir ais</w>
diplom ate.</w>
diplom at.</w>
diplom at
din osaur
din ner,</w>
digit al</w>
différen te</w>
différ ents.</w>
différ entes</w>
difficul tés.</w>
diffic iles</w>
differ ent.</w>
diff ers</w>
diction s,</w>
diction ary</w>
di é</w>
di vers
di riez-vous</w>
di que</w>
di mension</w>
di eting.</w>
di ence.</w>
di e?</w>
di d
di ctat
dictat ori
di agon
devr a</w>
devin é</w>
devin rent</w>
devi ennent</w>
dev rions-nous</w>
dev oted</w>
dev ons-nous</w>
dev ions</w>
dev eloped</w>
dev as
devas tat
det ail
detail ed</w>
destin ation?</w>
destin ation.</w>
dess ous.</w>
design ers</w>
descri ption.</w>
descri be</w>
des tro
des k</w>
derni ers</w>
depar ture.</w>
denti ste.</w>
denti st.</w>
denti st
demand ais</w>
dem ment</w>
dem i</w>
dem eur
dem an
delici ous</w>
del i
dehor s,</w>
defe ated</w>
defe at</w>
decid ing</w>
dec ent</w>
deb t</w>
death ?</w>
de pres
de grés</w>
de grees</w>
de ed,</w>
de cep
de ceiv
de ar</w>
de !</w>
day 's</w>
day !</w>
dans é</w>
dans er</w>
dan sa</w>
dan ce
dam age</w>
dai ly</w>
dad 's</w>
d'ét ouff
d'hor reur.</w>
d'aut re?</w>
d'ap porter</w>
d'aff irmer</w>
d'ac quérir</w>
d'ab ord</w>
d'ab at
d'abat tement</w>
d' œufs</w>
d' étudiants</w>
d' étoiles</w>
d' éteindre</w>
d' énergie.</w>
d' églis
d' urgence</w>
d' ouvrir</w>
d' ore
d' ordinaire</w>
d' information.</w>
d' identi
d' homme</w>
d' hier.</w>
d' habitude</w>
d' habitude,</w>
d' expérience.</w>
d' essayer.</w>
d' espace</w>
d' entrer.</w>
d' enfants</w>
d' eff
d' eau,</w>
d' autre.</w>
d' autom
d'autom ne.</w>
d' aucune</w>
d' après</w>
d' amis.</w>
d' am
d'am our,</w>
d' O
d' Amérique.</w>
d ès</w>
d war
d on</w>
d ity</w>
d ite.</w>
d it,</w>
d ingue</w>
d ette</w>
d el.</w>
d ant.</w>
d a</w>
d 's</w>
cô tés</w>
cérémon ie</w>
célè bre.</w>
cy mb
cy ber
cur tain</w>
cur t
cur ry</w>
cul tures.</w>
cul tur
cul ti
cuisini ère.</w>
cuisini er.</w>
cuisin er.</w>
cu t.</w>
cu red</w>
cu l</w>
cu ir</w>
cti on,</w>
ct eur</w>
cré er</w>
cry ing?</w>
cru tches</w>
croy able</w>
crow ded</w>
crow d</w>
crow d.</w>
cros sing</w>
croi rez</w>
cro ss</w>
cro it.</w>
criti ques</w>
cris is</w>
cris is.</w>
crip t.</w>
crimin al</w>
cri tique</w>
cri tique.</w>
cri tical</w>
cri tic
cri me</w>
cre dit</w>
craz y?</w>
cray on</w>
crav ate</w>
crai g
craf t,</w>
cr ème</w>
cr y,</w>
cr o</w>
cr it
cr ap
cr ains</w>
coû ts.</w>
cover ed</w>
couver tures</w>
couver ture</w>
couver ture.</w>
couver t</w>
coute aux</w>
coute aux.</w>
cous ins.</w>
cour t.</w>
cour t,</w>
cour ses.</w>
cour se,</w>
cour s,</w>
coup ent</w>
coup able</w>
coun tless</w>
coul d,</w>
cou rir.</w>
cou ples</w>
cou ple.</w>
cou le</w>
cou ché</w>
correspond ait</w>
correspon d</w>
correc tly.</w>
correc t?</w>
cor pus.</w>
cor des</w>
cor de</w>
cop y
cook ies.</w>
coo pér
convinc ed</w>
convaincu s.</w>
convaincu .</w>
convain c
contribu er.</w>
contrari é.</w>
contr ôle</w>
contr ôle.</w>
contr ol
contr ary</w>
contr ain
contr adi
cont ex
cont ents</w>
cont ented.</w>
cont ent
cont ain</w>
cont act.</w>
constru ite</w>
constru ction</w>
const antly</w>
const amment.</w>
conspir ac
consomm ation</w>
considé rée</w>
considé ré</w>
considé rer</w>
considé rablement</w>
conse il</w>
connaiss ons</w>
conn us</w>
congratul ate</w>
confus ion</w>
confis cated</w>
confir mé</w>
confi d
confi ant.</w>
confectionn é</w>
conf érence</w>
condu cteur</w>
condu ct.</w>
conditi onné.</w>
conclus ion</w>
concer t.</w>
concer ned,</w>
concer nant</w>
concentr er</w>
concentr er.</w>
concentr ate.</w>
conc lu.</w>
con vient.</w>
con ver
con tient</w>
con tenu</w>
con su
con ne
con jug
con gé</w>
con gé.</w>
con fron
con fl
con fer
con dol
con cl
comprend rai</w>
compos ée</w>
compos ed</w>
compos ants</w>
compliqu é.</w>
compli cated.</w>
comple x</w>
complain ts</w>
complain t</w>
complain ing.</w>
compl éter</w>
compl ain.</w>
compag nons</w>
comp ter</w>
comp te.</w>
comp on
comp elled</w>
comp at
compat is</w>
commun auté</w>
commerci al
commer ce.</w>
comment aires</w>
comman de</w>
comman de,</w>
comm it
comm ission</w>
comm ettre</w>
comm ents</w>
combus tion</w>
com préhen
com prend</w>
com portent</w>
com es.</w>
collis ions</w>
collec tion</w>
collec ted</w>
colle ge.</w>
col os
col or.</w>
col onies.</w>
col lè
col labor
coffe e?</w>
co w?</w>
co st?</w>
co st.</w>
co de.</w>
co ck
clus terfuck.</w>
clou ds</w>
clou d</w>
closel y.</w>
clo sest</w>
clo ck</w>
clo ck.</w>
clo ch
clim b</w>
clim at</w>
cli mati
class es</w>
class ?</w>
clari fication.</w>
cl é
cl aus
claus trophob
cl ap.</w>
cl aire.</w>
cl aim
claim s</w>
ck ?</w>
civ il</w>
circum st
circul ation</w>
circul ation.</w>
circonst ances</w>
cir rho
cir c
ciné ma.</w>
ci gar
ci el.</w>
chu tes</w>
chu te</w>
chou x</w>
chou ette.</w>
choo se.</w>
chois ir.</w>
chois i</w>
chocol ate</w>
chino ise</w>
chino is</w>
chino is.</w>
chiev ing</w>
chi ens.</w>
chev al</w>
cherch eurs</w>
cherch es-tu</w>
cherch er.</w>
cherch ait.</w>
cherch ais</w>
cher a</w>
chem is
che ese.</w>
chauss ettes</w>
chat ,</w>
charg é</w>
charg es.</w>
charg er</w>
charac ters</w>
charac ter.</w>
char me</w>
chap ter</w>
chang es</w>
chang era</w>
chang e?</w>
chanc eux</w>
chan son.</w>
chan son,</w>
cham pagne.</w>
cham p.</w>
challeng er.</w>
chal eur</w>
chal eur.</w>
ch œ
ch unks</w>
ch réti
ch ess.</w>
ch arm
ch ant</w>
ch and
ch air
chair person.</w>
ch ain</w>
ch a
certain ly</w>
ceremon y</w>
ceremon y.</w>
cer ve
cer cle</w>
celui- là.</w>
celui- ci</w>
celle- ci</w>
celebr ate</w>
ceil ing.</w>
ce !</w>
cath oli
cat alo
cat ?</w>
cass ée.</w>
cass er
cas ,</w>
carri ed</w>
care fully.</w>
care ful,</w>
care ful!</w>
care er</w>
car rying</w>
car refour.</w>
car di
car d</w>
capit alis
capitalis me</w>
capit ale</w>
capac ité</w>
cap ture</w>
cand in
cancer ,</w>
can cel
cam pus</w>
cam p</w>
cam ion.</w>
cam e.</w>
cam bri
cam ara
camara des</w>
call s</w>
call ing,</w>
cal ories</w>
cal m</w>
cal m.</w>
cal m
cal cu
cafet eria.</w>
caf étéri
caf é,</w>
cach é</w>
cach er</w>
cacahu ètes</w>
cab .</w>
c â
c y</w>
c s,</w>
c ou</w>
c esse</w>
c entre-ville.</w>
c enti
c enter</w>
c el</w>
c ate</w>
c al</w>
c ake?</w>
c aill
c a
c -
c- en-ciel</w>
béné fic
bé qu
by g
but tocks</w>
but terf
but ter</w>
busin ess.</w>
bus y?</w>
bus h.</w>
bun tu</w>
bun ch</w>
buil d
bu ying</w>
bu t.</w>
bu is
bu g</w>
brû lé</w>
brû lé.</w>
brû l
brun s.</w>
brother s</w>
brother ?</w>
bronz age</w>
britanni que</w>
brill ante</w>
brill ante.</w>
bri oche</w>
bri dge</w>
break s</w>
break ing</w>
bre v
bre ath</w>
bre ath.</w>
bre ath
bre ad.</w>
brac elet</w>
br un</w>
br ouill
br ings</w>
br ille</w>
br ave</w>
br ass
br as,</w>
br ain
boyfriend ?</w>
boy cot
boute illes</w>
bou tique</w>
bou illie.</w>
bou cle</w>
bou che</w>
bott les</w>
bott le.</w>
bor ing.</w>
bor ing,</w>
bor der.</w>
bor d</w>
bor ac
borac as
boracas li</w>
book ?</w>
bonn e.</w>
bonh eur</w>
bonh eur.</w>
bod y?</w>
bod y's</w>
bo y's</w>
bo x</w>
bo x,</w>
bo wed</w>
bo w
bo t
bo ite.</w>
bo is.</w>
bo at</w>
blu ff
blu e.</w>
blow ing</w>
blon des.</w>
blon de</w>
blo quée</w>
bli n</w>
bles sur
ble eding.</w>
blan ket.</w>
blan c</w>
black board
black ,</w>
bl oody</w>
bl ood.</w>
bl is
bl eu
bl es.</w>
bl am
bl ague.</w>
bl ag
bl ack.</w>
bizar re</w>
bit ing</w>
biscu its</w>
birth day!</w>
bir d?</w>
bil let</w>
bil let.</w>
bigg est</w>
bien venue</w>
bic y
bi got.</w>
bi g.</w>
bi g
bi ens</w>
bi ?</w>
betr ayed</w>
betr ay</w>
beso in,</w>
bes ide</w>
ber t</w>
ber ce
bene fit</w>
believ able
believable !</w>
bel le-mère.</w>
behav ior</w>
beg ins.</w>
befor e?</w>
beau ,</w>
beat en</w>
be ings</w>
be having</w>
be es.</w>
be en.</w>
be ef?</w>
be droom</w>
be ard</w>
be ar
bear ing</w>
be ad</w>
be ach
beach ?</w>
bat aille.</w>
base- ball</w>
bas k
bas ed</w>
barbecu e</w>
barbecu e.</w>
bar s</w>
bar re</w>
bar king.</w>
bar be</w>
bar a</w>
banan es</w>
ball s.</w>
bal con
bal ay
balay er</w>
bais er.</w>
bag no
bag ages.</w>
bad ly</w>
bad ly.</w>
bad ?</w>
back ?"</w>
bab y,</w>
b œuf</w>
b œuf.</w>
b êti
b s</w>
b s.</w>
b ous
b ounce</w>
b ons.</w>
b omb
b ol.</w>
b locked</w>
b ite.</w>
b it.</w>
b in
b ill,</w>
b i</w>
b est-
b er</w>
b ath.</w>
b ath
b at</w>
b ase</w>
b as</w>
b aked</w>
b ain.</w>
b ai
b a.</w>
aî t</w>
aî née.</w>
azak hstan</w>
az a.</w>
ay s.</w>
ay ok
ay ne</w>
aw oke</w>
aw k
aw are</w>
aw ai
aw a.</w>
avi gu
avi d.</w>
aveu g
aver age</w>
aver age.</w>
avant age</w>
avant -
avant ,</w>
avanc é.</w>
avail able?</w>
av ril.</w>
av is,</w>
av iez</w>
av ed</w>
autoris é</w>
automob iles</w>
autom ne,</w>
auth ority</w>
auth or</w>
aut re,</w>
aur ont</w>
aur ons</w>
aun t</w>
augment é</w>
augment é.</w>
augment ent</w>
au to</w>
au quel</w>
au dience.</w>
attrap e</w>
attr acted</w>
attend ons</w>
attend ais.</w>
attaqu és</w>
att ar
att acked</w>
att acked.</w>
att ach
atom ique</w>
ati ves.</w>
ati n</w>
athle tic</w>
athle te.</w>
ath y.</w>
ath lé
at ur
at ténu
at tiré</w>
at or</w>
at or.</w>
at mo
at in.</w>
at eurs</w>
at eur</w>
at ely.</w>
assur ance</w>
assur ance.</w>
assum p
assist ant</w>
assist ance.</w>
asse z.</w>
assau l
ass ister</w>
ass ise</w>
ass embl
ass ass
aspec t</w>
ask ervilles.</w>
ask a.</w>
as tr
as te</w>
as parov</w>
as ks</w>
as king</w>
as ide</w>
as i
as h.</w>
as ak
asak i.</w>
artif icial</w>
artif ici
arti st.</w>
arrê tée.</w>
arrog ants</w>
arrog ant</w>
arrog ant.</w>
arrog ant,</w>
arriv és</w>
arriv ées.</w>
arriv es</w>
arriv ent</w>
arriv ent.</w>
arriv e?</w>
arriv e,</w>
arriv a</w>
arr ested.</w>
arr est</w>
arm s.</w>
arm s,</w>
ari th
ari es.</w>
argu ing</w>
are as</w>
ard on</w>
architec te</w>
architec t</w>
arai gnée</w>
arab e.</w>
ara h.</w>
ar y?</w>
ar t?</w>
ar se.</w>
ar ound,</w>
ar o</w>
ar na
ar mes.</w>
ar me.</w>
ar es</w>
ar en
ar c-en-ciel</w>
ar bre</w>
ar bre.</w>
ar a</w>
ar a.</w>
ar ?</w>
appéti t</w>
appéti t.</w>
appréci era</w>
appréci er</w>
appréci ent.</w>
appro xim
appro pri
appr is.</w>
appoin ted</w>
applic ations</w>
appl ying</w>
appl es</w>
appl au
appel ée</w>
appel ons</w>
appear s</w>
appear ance.</w>
appe ar</w>
appe aled</w>
appar u</w>
appar entées.</w>
app ing.</w>
apologi zed.</w>
apar tment</w>
ap te</w>
ap pu
ap porte</w>
ap petite</w>
ap hrodisi
ap ath
anymor e?</w>
any body?</w>
any body.</w>
any ,</w>
anti cip
ant es</w>
answ ers.</w>
answ ered</w>
annul ée</w>
ann oun
ann el.</w>
ann a</w>
ank sgiving.</w>
anim als.</w>
ang r
ang e</w>
and rang
and ela.</w>
and e.</w>
anc estors</w>
anc esco</w>
anak o.</w>
an throp
an s,</w>
an que</w>
an other.</w>
an no
an iguchi.</w>
an cho
an ch
an alo
amélior ée.</w>
amou reus
ambul ance</w>
ambul ance.</w>
ambi tious.</w>
ambi tion.</w>
amaz ing.</w>
am ount</w>
am is,</w>
am er.</w>
am bass
am ateurs</w>
am ak
amak o</w>
am ?</w>
altern atives</w>
alread y?</w>
alread y,</w>
alread y!</w>
alph anu
allowe en.</w>
allow s</w>
all é.</w>
all y.</w>
all y,</w>
all u
all ons-
all ong
all e.</w>
all as.</w>
all ant</w>
alis tic</w>
alis tes</w>
alis t.</w>
ali forni
ali en</w>
ali bi?</w>
ali bi</w>
alent ours</w>
al é</w>
al ty</w>
al tru
al ors.</w>
al le
al king</w>
al géri
al as</w>
ak ongo.</w>
ak fast</w>
ak espeare,</w>
ak ag
ajou tées</w>
ajou ter</w>
ait- elle</w>
ais- Roy
ais-Roy al.</w>
ais …</w>
ais ée</w>
ais é,</w>
ais ance.</w>
ais ?</w>
ais -toi</w>
ain ting</w>
aim ée</w>
aim ée.</w>
aim ons</w>
aim es-tu</w>
aim able</w>
ail les</w>
ail le,</w>
ai t,</w>
ai ro.</w>
ai rement</w>
ai re,</w>
ai ne;</w>
ai mais</w>
ai l</w>
ai gu
ai ent.</w>
agressi vité</w>
aggr ession</w>
ag réable</w>
ag ri
ag o</w>
ag es,</w>
ag ers</w>
ag asaki.</w>
ag an</w>
affai rs.</w>
affai res.</w>
aff lig
advis er.</w>
advis e</w>
adv ic
adres se,</w>
ador ent</w>
ador able.</w>
adol escent</w>
adol esc
admir é</w>
admi red</w>
adm ets</w>
adi l</w>
addr ess,</w>
addi tionn
adap t</w>
ad ul
ad ministration</w>
ad erborn</w>
actu ari
activit é</w>
activit y</w>
aci fi
aci de.</w>
achet er.</w>
achet a</w>
ach ing</w>
ach e</w>
accus ée</w>
accus tomed</w>
accor d</w>
accid ents</w>
accid ent
accep ter
accep ted</w>
acc ess</w>
ac rob
ac ide</w>
ac ebook</w>
ac cue
ac cro</w>
ac cro
ac .</w>
aby le</w>
aby l
abun dance.</w>
absur de</w>
absur d</w>
absor be</w>
absolu te</w>
abs ent.</w>
abon dance.</w>
abil ity</w>
abil ity.</w>
abandonn er.</w>
aban donner</w>
aban donne</w>
aban don
ab strai
ab stract</w>
ab sti
ab sente</w>
ab road</w>
ab ri.</w>
ab lement</w>
ab ducted</w>
ab a
aba h?</w>
a. gov</w>
a tricia.</w>
a the
a qué</w>
a h</w>
a f</w>
a S
aS C
aSC RI
aSCRI P
aSCRIP T
aSCRIPT .</w>
a ?"</w>
a !</w>
Yu kio</w>
Yu kawa</w>
YouTu be</w>
You ng</w>
Yor k,</w>
Yokoham a.</w>
Yester day,</w>
Y ear
Y 2
Y2 K?</w>
Wi kileaks</w>
Who ever</w>
WhatsAp p</w>
WhatsAp p.</w>
What 've</w>
Wh ether</w>
Wh erever</w>
We ’ve</w>
Wat er</w>
Was n't</w>
Was h</w>
War craft,</w>
W inter</w>
W ell,</w>
W ayne</w>
Voy ons</w>
Vou drais-tu</w>
Ven us,</w>
V raiment</w>
V ince</w>
V ide</w>
V er
Un believable!</w>
U tilis
U se</w>
U rin
U ranus</w>
U buntu</w>
Tur quie</w>
Tu fts</w>
Tro is</w>
Trav eling</w>
Tradu isez</w>
Ton y</w>
Ton y.</w>
Tom ",</w>
Tom !</w>
Tom !"</w>
To wer</w>
To day's</w>
Ti ens</w>
Ti bet.</w>
They 've</w>
They 'll</w>
The ir</w>
Th ree</w>
Th ousands</w>
Th ough</w>
Th ings</w>
Th anksgiving.</w>
Tatoeb a?</w>
Tatoeb a,</w>
Tanak a</w>
Tanak a.</w>
T' as</w>
T rang,</w>
T ickDisplay</w>
T erre.</w>
T ent
T enez-vous</w>
T ed</w>
T e
T aro</w>
T aniguchi.</w>
T alking</w>
Sus an.</w>
Su gar</w>
Su ck
St eve</w>
St am
Spanish ,</w>
Sou viens-
Son ia</w>
Sole il.</w>
So oner</w>
Smi th.</w>
Sh ounan.</w>
Sh ould</w>
Sh inobu</w>
Sh ame</w>
Sh akespeare,</w>
Sent ez-vous</w>
Sent ences</w>
Se en</w>
Se con
Salu t,</w>
Sal z
Sal ut.</w>
Sach s</w>
Sach iko</w>
SM S</w>
SM S.</w>
S ydney</w>
S wimming</w>
S urveille</w>
S ur</w>
S un</w>
S trang
S tephen</w>
S qu
S ors</w>
S ix</w>
S impsons.</w>
S hut</w>
S end</w>
S ci
S candin
S ayok
S atur
S ato</w>
S arah.</w>
S ant
S andra</w>
S am</w>
S ally</w>
S acré</w>
S abah?</w>
S D.</w>
Ré cem
Russi an.</w>
Rest e-t-il</w>
Res n
Res earchers</w>
Rem ember</w>
Regard ez</w>
Reall y?</w>
Re po
Re ichelt</w>
Re agan</w>
Re ad
R unning</w>
R un</w>
R ome.</w>
R ocío.</w>
R obinson</w>
R ight</w>
R ick."</w>
R h
R even
R empl
R ecently</w>
R A
RA M.</w>
Qu' êtes-vous</w>
Qu' il</w>
Qu' avez-vous</w>
Qu ’
Qu e
Prépar ez-vous</w>
Pro jet
Pres que</w>
Pr incess</w>
Pouv ons-nous</w>
Por tugal</w>
Pol lu
Pleas e,</w>
Ph ilip,</w>
Peu t-on</w>
Permet tez-moi</w>
Pense z</w>
Passe -moi</w>
Pardonnez- moi,</w>
Par lons</w>
Par k</w>
Par is,</w>
Par ents</w>
Pal ais-Royal.</w>
P ush</w>
P résident</w>
P ré
P ickpockets</w>
P icasso</w>
P haramp</w>
P eter</w>
P eter,</w>
P en
P atricia.</w>
P asse</w>
P ardon</w>
P ainting</w>
P aderborn</w>
P acifi
Ou vrez</w>
Ou bli
Osak a</w>
Osak a.</w>
Os car</w>
OK ?</w>
O ver</w>
O ri
O pen</w>
O lympic</w>
O liver</w>
O c
O bam
O b
O K</w>
Nouv elle</w>
No w,</w>
No v
No bel</w>
New ton</w>
Na ples,</w>
Na omi</w>
N'hé site</w>
N' était-ce</w>
N' utilisez</w>
N' est-il</w>
N' allez</w>
N oriko.</w>
N or
N oi
N eymar</w>
N er
N elson</w>
N ash.</w>
N ara</w>
N akag
N agasaki.</w>
My an
Mos cow?</w>
Mos cou</w>
Mon te</w>
Mon go
Mon drian.</w>
Mo zart,</w>
Mis hima</w>
Mil an.</w>
Mi yazaki</w>
Mi ke</w>
Mi ke.</w>
Mi ho</w>
Mi cha
Met tez</w>
Mer ci,</w>
Mat t</w>
Mat suyama.</w>
Mat oub</w>
Mary !"</w>
Mari a,</w>
Mar y?</w>
Mar ty</w>
Mar tin</w>
Mar seille.</w>
Mar ia</w>
Mal gré</w>
Mainten ant,</w>
Mag ic</w>
Mag e"</w>
M ust</w>
M oy
M other</w>
M ore</w>
M oham
M me</w>
M iracul
M ine</w>
M in
M e</w>
M ax</w>
M andela.</w>
M an
M '
M' écoutes-tu</w>
Lu xembourg.</w>
Lu ther</w>
Lors qu'il</w>
Lon don</w>
Li ke</w>
Li bé
Lef t-
Layla 's</w>
Laisse- la</w>
L'av ion</w>
L' été</w>
L' énergie</w>
L' une</w>
L' hiver</w>
L' avez-vous</w>
L' agent</w>
L' Allemagne</w>
L éa</w>
L è
L une.</w>
L ui</w>
L ounes</w>
L ong</w>
L o
L incoln</w>
L eur</w>
L enn
L avez-vous</w>
L atin.</w>
L a
L SD.</w>
L O
Kyo to</w>
Ko be</w>
K ob
K evin</w>
K eller</w>
K azakhstan</w>
K athy.</w>
K asparov</w>
K akongo.</w>
Jus qu'à</w>
Ju lie</w>
Ju ba.</w>
Joh n's</w>
Joh n
Jo e</w>
Jim my</w>
Jim i</w>
Jean ette</w>
Jav aSCRIPT.</w>
Jav a.</w>
Japan ese?</w>
Jan e.</w>
J'attend rai</w>
J'apprend s</w>
J'ap porterai</w>
J' étudie</w>
J' éprouve</w>
J' ouvris</w>
J' ignorais</w>
J' eus</w>
J' envisage</w>
J' emprunte</w>
J' attrape</w>
J' arrose</w>
J' appréci
J' admets</w>
J ’
J upiter</w>
J ordan</w>
J ones</w>
J ones.</w>
J enn
J ack</w>
Itali an</w>
Isra ël</w>
Isra el</w>
Is n't</w>
Indi a</w>
Indi a.</w>
In vite</w>
In vit
In stead</w>
In nsbruck,</w>
In forme
In deed,</w>
In de</w>
In de.</w>
In croyable</w>
I stanbu
I r
I gnore</w>
I ci,</w>
I ,</w>
How ever,</w>
Honn i</w>
Hit omi.</w>
Hit ler</w>
Hen ry</w>
Hel lo.</w>
He y,</w>
He 'll</w>
Hav ing</w>
H ungari
H ummer</w>
H ot</w>
H opkins.</w>
H ooker</w>
H ol
H ist
H ier</w>
H eureux</w>
H endrix</w>
H as</w>
H arry</w>
H arb
H and</w>
H anako.</w>
H alloween.</w>
H ab
Gu erre</w>
Gre en</w>
Gre en.</w>
Grand ma</w>
Gr âce</w>
Goog le</w>
Go t</w>
Giv en</w>
Gir ls</w>
Ger mans</w>
Ger man,</w>
Gard ez</w>
G roup.</w>
G oro-san.</w>
G oldman</w>
G l
G aza.</w>
G andrang
Fri day.</w>
Franç ois,</w>
Franç ais</w>
Frank ly,</w>
Fran z</w>
Fr itz.</w>
Fr ancesco</w>
For give</w>
Fin alement</w>
Fe el</w>
F élicitations</w>
F red</w>
F ollow</w>
F ind</w>
F ill</w>
F anta,</w>
F aisons</w>
F adil</w>
F acebook</w>
Excus ez-moi</w>
Ex iste-t-il</w>
Every thing's</w>
Euro pé
Essay ez</w>
Es saie</w>
England ?</w>
Eng land</w>
En vir
En semble,</w>
En joy</w>
En core</w>
Ear th.</w>
Ear th
E ul
E ric</w>
E mili
E gyptian</w>
E fforcez-vous</w>
E ach</w>
Débarr asse
Dur ant</w>
Du blin</w>
Donne z-nous</w>
Donne -
Do wn</w>
Do esn't</w>
Dites- leur</w>
Dem ain</w>
Dem ain,</w>
De bus
D ét
D u</w>
D roplets</w>
D ouble-cli
D in
D eutsch
D avid.</w>
D ard
D ame</w>
D allas.</w>
Cro yez-vous</w>
Cro is-tu</w>
Cre ative</w>
Con tr
Con tinu
Con tin
Con gratul
Con gr
Comm ons</w>
Col omb</w>
Col bert</w>
Cle opatra's</w>
Christop her</w>
Christop he</w>
Chop in</w>
Chop in.</w>
Chin ese.</w>
Cher chez</w>
Che ck</w>
Char tres</w>
Ch ange</w>
Ch acun</w>
Cert ain
Cel ui-ci</w>
Cath y</w>
Car tw
Car lton.</w>
Cap itu
Cap italis
C ’est</w>
C ut</w>
C u
C ré
C ristina</w>
C oun
C op
C oca-Cola</w>
C léopâ
C hi
C e
C am
C aliforni
C al
C airo.</w>
C aire.</w>
But terbro
Brés il.</w>
Bre and
Bre akfast</w>
Bre ak</w>
Braz il.</w>
Br ush</w>
Bon jour,</w>
Bi zarrement,</w>
Be thesda.</w>
Be ing</w>
Be g
Be fore</w>
Bar bara</w>
Bar ack</w>
B y
B ur
B read</w>
B rasilia.</w>
B ou
B onne</w>
B on,</w>
B ob.</w>
B ite</w>
B es
B ernard</w>
B erlin.</w>
B elieve</w>
B elfast.</w>
B askervilles.</w>
B anque</w>
B amako</w>
B abyl
B RI
B C</w>
B BC</w>
Av ons-nous</w>
Av at
Australi an.</w>
Au tre
Attend ons</w>
At trape</w>
As se
Ar riv
Ar gent
Ar ab
Apr il</w>
Appel le-moi</w>
Appel ez</w>
Appar emment,</w>
Ap prends-moi</w>
Ap porte</w>
Ap ollo</w>
Any body</w>
Ank i</w>
Ank ara.</w>
Angle terre.</w>
Angle terre,</w>
An ticip
An tar
An na</w>
An drew</w>
Améri que,</w>
Amus e-toi</w>
Americ an</w>
Americ an.</w>
Americ a</w>
Americ a,</w>
Am nesty</w>
Alor s,</w>
Allem ands</w>
Alg eri
Al most</w>
Al fred,</w>
Al bi
Al aska.</w>
Al ain</w>
Akag i</w>
Akag awa.</w>
Aim erais-tu</w>
Afri que</w>
Afri c
A ïe</w>
A si
A ren't</w>
A part</w>
A lejandra</w>
A ki
A jou
A délaïde</w>
A chieving</w>
A -t-elle</w>
? »</w>
? ".</w>
:0 0
:00 ?</w>
: 00</w>
9 .</w>
88 8
888 .</w>
8 9.</w>
8 60
860 ,</w>
8 3</w>
7 .</w>
60 4</w>
6 0</w>
4 2.</w>
3 2</w>
201 6</w>
200 3.</w>
200 1
2001 ,</w>
20 0</w>
20 00</w>
20 .</w>
2. 0</w>
2 7.</w>
2 5</w>
2 ,</w>
198 5.</w>
198 1
1981 .</w>
198 0.</w>
197 4.</w>
197 2.</w>
197 0.</w>
191 4.</w>
191 2,</w>
19 20.</w>
17 89.</w>
10 :00?</w>
1 888.</w>
1 860,</w>
1 4</w>
1 2</w>
.. .
- moi,</w>
- gu
( fr).</w>
' i'.</w>
' "</w>
" foo
" fall"</w>
" What</w>
" Tom",</w>
" So</w>
" Salut,</w>
" No,</w>
" Ne</w>
" Je</w>
" I</w>
" Hi,</w>
" Can</w>
! ”</w>
